FB
23
E8
FF
F1
0E
F8
FC
E2
FF
EF
04
FA
F7
EE
0A
F6
11
EB
03
FF
FF
25
23
23
26
18
FD
F4
21
EA
0A
06
F8
F4
12
C7
07
E8
E4
22
0A
1F
F2
F2
F2
1C
FB
16
F7
0B
3C
E2
23
E5
E7
07
FD
EB
F7
F4
DD
31
10
F8
39
CD
E8
E9
E3
DC
F5
F1
F1
DA
ED
F5
0A
F2
FE
ED
10
DC
E5
26
05
37
F7
E4
22
D5
F3
EF
4D
DB
0B
0D
E7
F4
01
1A
18
CF
0A
08
0D
23
EA
DF
F9
E9
1E
34
FE
CD
41
EF
16
F5
D8
FC
13
F8
DA
F4
EE
FD
E7
F4
1A
EC
03
E6
17
FF
0D
E1
EF
F0
F1
FA
FC
FA
23
F9
0F
01
EF
DB
05
33
04
21
31
2C
ED
FE
20
CE
12
07
DE
F5
16
CD
05
DB
ED
36
0F
24
D9
FC
EF
0F
18
1F
E4
20
37
EF
23
F4
EB
09
F5
CA
D7
E2
CF
2A
2C
04
37
D1
E3
EE
DF
D7
E9
EC
E2
D4
E4
F9
0A
F6
F5
F0
F6
D4
EE
2D
03
24
11
F1
33
DB
D9
DB
5A
DF
F6
FD
FA
E6
FF
15
14
C1
F8
13
01
34
F7
E8
FC
EA
10
3E
FD
C8
4A
F1
1B
FB
EB
FD
01
FA
E1
01
E6
F2
DC
D6
36
E8
EC
E3
EA
F1
03
F2
E3
EB
F4
0B
16
F3
FD
E4
02
EC
F8
02
0E
51
F9
06
36
E6
EB
0E
4D
E2
0F
F6
D3
EC
16
FA
15
BC
F3
3E
EE
1D
D9
E4
FB
01
20
37
06
F9
61
E7
14
DA
F8
09
0F
E3
E4
E6
D6
08
FF
F3
2C
DE
EF
DD
F3
DB
E8
ED
E8
DF
F5
F4
FC
03
0B
08
FB
ED
EA
20
18
20
05
08
3D
E5
ED
F3
51
E1
F4
0C
E4
F1
1F
15
14
CF
07
2A
F6
27
0E
E7
F1
F6
18
24
08
DE
51
F9
33
F9
EA
F8
08
E1
D6
FB
DA
F4
F0
FA
20
D6
EB
E4
04
F4
E9
FD
F0
EF
FE
FA
FB
E3
0D
F6
EC
FD
01
10
0F
1C
08
08
42
0D
FA
E0
25
F3
04
08
DA
DF
0D
0B
13
EA
F7
1B
EF
39
FB
F3
FE
F7
01
0E
07
CD
5E
E9
41
02
F2
0F
F0
E5
03
06
EB
F1
E1
FC
2E
E1
F1
F1
F2
EE
F7
ED
F2
E1
E2
EE
1A
F9
03
E5
1A
DF
F2
14
08
3B
F5
E8
12
CA
F9
ED
48
E5
0E
09
E9
FB
EA
0C
0E
C7
14
FD
1C
11
EF
EC
F8
E1
0E
37
06
D6
2B
F7
08
F3
E5
08
0F
F9
DB
FE
EF
F8
F9
F9
14
EB
F1
DA
1A
E7
EA
F3
EE
FE
ED
FC
F1
DE
0B
E8
E9
F6
E5
09
1A
19
1C
1B
51
24
00
F7
24
EB
F8
F8
DF
01
22
FD
03
DA
FA
2E
EA
2F
12
07
F5
12
0F
05
F8
FE
4A
DF
48
1A
EC
05
E5
E0
FD
FC
E6
13
FC
EA
20
EA
06
F2
00
00
08
F2
05
EE
FD
13
FB
FB
0E
ED
04
F3
00
F4
0F
32
0A
1B
34
06
F7
0D
21
E0
0F
0B
E6
FF
1A
E1
18
C3
F3
47
07
0D
EF
0A
02
0E
2D
28
F5
10
35
ED
1C
EF
F8
0C
F2
E6
E8
E7
E4
26
1E
01
35
D8
EC
DF
ED
EE
F4
EF
E7
E4
E7
F3
1F
05
08
EF
00
D7
EC
0F
0F
44
F7
F4
1C
D9
F1
EF
5D
E4
16
0A
EB
E3
FB
1B
11
BD
07
0C
12
25
E7
E2
F1
F9
1C
3F
F9
D5
3D
E7
06
DE
D8
F8
18
EE
E1
04
D8
FE
EB
A5
23
D9
F7
EE
02
E8
0A
09
F0
DC
F3
21
1C
E4
FF
E2
EB
C6
10
0A
22
55
FC
ED
58
E0
E7
FC
4A
EA
16
E7
C9
E7
11
FF
1E
A2
EC
6E
D9
33
FA
EE
10
F0
1A
39
10
F1
4F
FC
24
D6
0C
10
11
E6
DC
E9
E3
06
FC
FF
10
F3
E7
EB
11
F5
F2
EF
F7
F9
FE
FB
F1
FF
1A
0F
F7
FB
F2
05
1F
10
09
22
42
20
EB
F8
1C
E4
05
01
D3
E3
19
00
00
E3
F5
2E
EE
39
FC
02
F3
07
04
06
F5
DF
42
E8
4B
06
EE
0B
02
DA
FF
FD
EA
FF
F9
08
08
EC
F5
F6
F8
FC
E4
0B
0B
01
08
0A
EB
F5
10
15
EB
0F
00
1D
02
DB
08
0A
2F
08
E2
EC
0D
0D
F4
FB
F2
EA
0D
00
14
0B
F0
0D
CF
3F
0B
E2
FD
02
F6
08
12
D0
3C
F4
2E
0B
0A
EF
F8
00
13
0E
0B
E5
EA
07
FE
00
EC
00
F5
07
F4
16
FE
06
F6
F7
F8
0B
FA
17
E2
08
04
0B
F9
F6
FB
F5
FA
FF
11
F7
FC
1A
F7
F1
16
FD
0B
F3
FE
10
0A
FA
00
02
1C
0E
04
F3
E6
EB
00
FD
EC
10
F0
05
10
F6
FB
12
15
14
16
02
FA
F3
15
E2
E3
DE
0C
DE
F7
F6
F5
F6
EE
01
F1
EB
15
FA
EA
FE
F6
06
20
21
12
1B
4E
04
F1
EF
3F
DE
0B
FE
CD
EE
0E
0A
0D
D1
01
31
EB
35
03
FE
F6
FF
04
13
03
E2
52
E4
3F
06
E4
FC
F3
DA
EE
F1
E7
04
F5
FE
36
D9
E1
E8
E5
DC
EE
E4
DD
E4
F6
F9
05
F0
F9
E0
F8
E4
E0
35
07
35
0D
EB
23
CA
E6
DD
5E
DF
F8
08
F4
F1
00
17
10
C9
FF
12
12
1F
F9
DF
FC
F4
10
40
07
D2
45
ED
18
EB
DC
FB
09
FC
D7
FC
D8
F3
DA
F7
11
EE
F2
EF
FD
F1
F9
EF
F6
FF
F3
0A
EB
E7
00
03
F8
FB
F5
0A
1B
13
15
24
50
0D
DE
F4
29
DE
01
0B
ED
EE
1E
06
11
E0
F3
38
F6
27
06
F4
00
FE
08
11
F4
EE
3D
F0
44
08
F4
FC
FC
ED
EA
F8
E0
FE
E7
01
F4
05
FC
05
01
F6
07
04
08
09
FE
02
01
00
02
03
08
08
05
0C
04
03
01
F7
F7
06
F8
FB
FE
07
F5
F8
05
08
03
FA
06
FD
00
F7
F3
FA
F8
FE
06
FD
00
06
00
00
03
FE
09
FF
FE
01
01
FB
FF
03
FC
F8
F4
FE
21
E7
EE
EB
09
F1
05
F1
EB
EB
F2
F8
17
F3
FA
EA
03
FD
03
F4
1D
1B
F5
1A
3F
FF
FD
FB
39
E4
07
ED
C5
FF
18
F7
1A
DA
F8
3C
0B
23
02
FF
F1
0A
22
17
F3
11
52
F0
33
F8
F7
00
FA
D6
F0
F1
EF
05
F6
F3
2F
D7
EC
ED
DF
DE
E7
07
F8
E2
06
F8
F2
E7
F9
E0
F5
D8
F9
2A
04
0C
0B
FD
40
E6
F2
F5
4E
F8
FF
07
F0
EF
00
0E
10
DE
FD
07
F7
29
04
E1
06
F1
13
3C
0E
D0
4E
EA
21
EF
F3
FF
01
F6
F3
0B
F5
F4
D6
00
28
D7
E7
D3
2E
F1
F2
F4
FB
F7
F1
F4
F2
F6
0C
E4
F6
FE
F9
F3
16
34
11
26
48
19
FF
E8
3A
D7
F3
FE
B8
F0
16
EF
1B
CA
F0
3D
09
3E
FF
10
E9
FA
0B
FE
F0
FB
4A
DA
46
05
F2
17
E3
D3
F5
E7
E0
1F
F1
FF
2B
F7
00
EA
1F
F7
13
EA
F9
F7
02
FA
0E
F7
0F
EF
10
F8
FC
E7
07
36
1A
24
1D
1F
FA
F8
21
D6
0B
0D
E3
FB
16
CB
14
D8
F2
2D
11
18
E9
EF
E4
1B
14
1E
E7
25
3D
DF
33
00
ED
01
F1
DC
DD
E8
D8
27
21
F6
30
CD
F1
E5
E7
DE
F2
F8
EF
DE
EB
FB
09
F3
0A
EA
01
CF
E3
28
07
2B
05
E8
28
CF
EB
EA
4C
EA
FE
FC
EE
EB
FB
0E
05
CD
01
00
10
2B
F0
DA
FA
F6
14
33
0F
D8
4E
E3
16
E1
D7
02
04
FC
EA
0E
E3
F1
DA
E5
4A
DA
FD
FF
D9
F5
0E
FF
FA
DA
F2
F2
17
EB
FB
D7
11
D0
F2
2B
04
42
F4
DD
34
CC
FC
F6
55
E9
0A
F5
DD
FE
E8
06
16
C0
10
0B
0C
13
F4
EA
06
DD
21
43
18
E7
50
F5
07
E1
E6
FB
19
FB
EA
FF
F0
00
EF
F3
33
E4
F7
F2
E2
E6
FC
FC
FD
DF
F1
01
19
01
F6
DC
0B
D5
EF
2B
0D
1F
F2
E4
1C
D7
E8
FB
43
DE
0B
FE
DE
FA
EF
0D
0F
BE
FD
0D
07
24
02
EB
10
F0
13
34
08
CA
3C
F2
0D
EA
F2
08
14
09
E6
FE
F4
F6
E6
B9
24
ED
FA
E9
FB
D5
11
F4
F6
E8
FE
18
14
D8
F1
CC
E5
D5
06
22
2F
54
0C
F2
61
E2
F9
00
57
F8
10
E0
E5
E8
22
FD
19
9B
EB
62
EA
15
FB
F8
F6
02
16
3A
09
22
67
F0
2A
D0
E8
13
F5
DF
D1
F6
D1
F8
FF
F9
29
D8
EA
E6
EA
CB
E5
E7
E6
D9
F3
FE
0D
DB
E9
DC
F0
E1
ED
39
0F
21
07
F4
2F
D2
EC
E6
52
E7
F2
F5
F5
F1
04
10
0B
D9
E9
0C
06
22
0E
E5
ED
F1
11
39
FF
CB
50
EA
17
FA
ED
FE
FC
FB
D2
09
DB
E6
D7
FD
0B
FD
FD
F7
0F
F8
F5
F8
0A
FD
F0
FB
01
08
07
01
04
F5
01
0B
F7
09
12
06
FD
0A
F9
01
15
F2
FC
FD
08
FB
09
DF
0D
FD
FA
04
09
0E
F9
FE
FB
07
F7
FF
F9
FD
10
01
0A
00
FA
0C
04
0B
FF
01
FE
09
0D
F5
36
E9
02
E0
19
09
09
DC
01
FF
F7
FE
FF
FA
15
F3
09
F3
F8
F1
0B
2D
0F
2B
21
20
F7
EA
2E
DD
04
04
D8
F7
0F
C3
1F
D5
F0
38
0C
1C
F6
F1
E8
0C
1A
1E
EF
20
31
E4
35
FC
E2
0E
ED
CC
DA
DD
CA
37
19
04
1C
EF
F1
E0
17
EC
EE
EB
01
FB
F1
FF
FA
FD
04
FA
F7
02
F4
09
18
25
0F
18
43
13
FB
F9
3A
E1
FC
F2
DB
F9
1C
FA
0B
DF
F0
42
FD
1F
0D
01
F5
15
0E
0A
EE
F9
47
EC
4A
10
EC
03
FB
E7
FA
01
E9
0C
EE
E5
1A
DA
FC
EC
FB
F3
F1
F0
F1
E0
F1
02
08
ED
17
FB
FB
E3
02
0D
2D
31
03
15
57
FF
EA
FC
2F
E0
0F
00
D9
E4
23
F9
0D
CB
03
43
F9
2A
FC
E7
F6
FC
13
19
05
EA
60
EF
36
F5
F6
03
0F
E6
DF
ED
DF
16
01
EE
36
E3
04
DC
10
05
01
D6
F5
F3
00
FA
07
F6
14
ED
0B
F7
F2
EA
16
43
1E
33
37
30
FF
FB
2A
D1
03
0B
E9
05
14
BF
0A
D0
EB
41
0A
15
EA
F7
EE
15
15
26
ED
1F
49
DF
33
F0
ED
07
F8
CF
DB
DD
D3
38
17
F4
05
E2
FD
EE
F9
F2
FE
05
F7
F3
16
0D
F8
E4
FD
E8
F3
E8
F7
1B
09
13
0F
11
48
13
F7
F1
2D
F8
03
F2
E1
FB
17
FF
14
CF
ED
43
EF
23
0F
FF
05
0C
05
1F
0D
EE
4F
E6
36
06
F7
13
F4
F2
0A
09
EC
F8
FD
DE
43
DE
EC
F3
DB
DE
08
FA
E5
E8
F1
07
17
F7
06
D2
0A
E9
F6
27
12
36
FC
E3
40
C2
EA
E7
53
E5
19
04
DE
EB
00
01
1E
C9
0F
15
05
2A
ED
EF
0C
E5
0C
3B
17
E3
5E
ED
19
D6
F0
FF
0C
07
E4
07
E5
F9
F5
FA
1A
D9
EA
EC
07
E4
E7
F6
F2
E6
ED
04
FA
E3
0B
02
E1
F2
FB
02
19
2C
10
10
57
17
EA
EB
32
DE
02
05
DE
DF
1E
05
11
D8
EB
45
E2
37
F8
FC
F0
06
0D
19
F5
E9
56
E5
3E
05
EC
01
01
D4
F2
FB
DB
10
F9
E3
23
E1
F7
E3
19
F7
01
FC
FE
F3
F0
F6
00
FF
24
F8
02
05
FF
E3
16
35
EF
1A
25
13
E8
E9
25
E7
07
FE
B6
DA
02
F9
29
CF
EF
40
F8
30
FA
F9
FF
F9
07
19
06
E1
3E
E3
2B
F2
F5
0B
F2
ED
F5
F2
F0
04
00
FF
1B
E0
F9
E1
20
06
01
DE
03
F8
FC
FE
03
F1
10
F2
15
F6
EE
ED
0E
2A
16
2A
1C
16
F1
F7
32
D9
0B
06
DD
FF
14
CC
0F
D2
E4
3C
0D
10
F6
EE
E7
14
20
1B
F2
21
3E
EC
31
F1
DF
FF
ED
D0
E2
E7
E1
30
1F
F7
22
DF
02
DB
1F
07
FF
EC
F7
E9
F4
F5
11
F2
18
ED
0C
E7
EF
EB
FD
42
1C
22
2D
29
FB
F9
32
DE
04
FC
E6
F5
0B
C6
1B
CB
F1
43
15
27
F1
F4
F4
0C
18
20
F3
24
3B
DD
29
F5
F0
08
E4
D1
E6
E3
DC
33
1F
F3
2F
EB
EE
D7
19
E9
F0
E5
F1
F4
F6
FF
10
EC
1B
FA
02
F3
F9
D9
19
2C
F8
22
35
1E
EF
F9
44
D5
0C
FA
B2
DA
24
F0
16
C2
EE
60
F9
35
E7
F1
F2
FD
0A
FF
F7
EC
4A
E8
4D
EF
E6
05
F6
CA
E8
DE
CD
1B
0D
EE
2E
EE
FD
E7
09
11
06
DB
F4
F9
F4
03
11
F3
14
09
0A
03
FE
E4
0B
38
06
33
2A
23
FA
FD
2A
D5
13
0A
DA
F7
1E
D3
0E
CC
09
46
12
16
E9
09
F1
0D
22
1A
F7
0C
37
EB
36
FB
EF
07
01
CE
CD
DF
C8
30
20
DE
0D
EF
FA
F3
F7
DD
07
01
E7
F9
05
1F
17
E5
F9
E9
DD
DE
FB
1D
1E
2E
11
0C
61
EF
FC
04
3F
F9
08
E8
FF
F9
25
03
08
C9
EC
46
EC
13
11
F6
F9
0A
11
38
FF
05
5B
F0
28
EF
02
09
FA
F3
E7
FF
E0
04
03
CF
52
D2
F0
F0
E8
F0
FC
0D
ED
CF
F7
0C
1A
E8
0F
D8
F1
C7
FF
2C
27
3D
EE
D8
59
D5
E2
F2
55
F4
1B
01
E8
E6
0F
06
1C
AA
08
30
EA
37
05
EB
0B
E6
1B
41
17
E8
60
F7
1A
DC
02
08
27
08
E2
FC
DD
0B
FB
05
18
F6
E8
FB
E7
E9
EA
FD
08
F1
06
FB
F1
F3
01
FA
EA
01
FE
2F
03
FA
08
FE
21
F8
EE
F8
3C
FE
F4
00
F7
F7
10
FE
0C
F3
F9
14
E3
31
0C
EC
F8
FD
0C
25
10
D1
26
F1
15
0F
F6
05
05
FD
00
0A
01
EE
DD
F4
2B
FB
00
E1
21
FD
13
DA
EF
F8
F8
01
0A
F9
27
EB
0C
01
EA
D8
0E
36
0D
36
26
28
FC
F6
2F
DC
FE
FD
DE
FA
1B
CB
10
CC
F4
4E
17
1A
DF
FA
E7
28
1B
1E
EF
2A
43
D9
34
F1
DD
0F
F0
C6
D8
E6
BC
3B
27
FB
32
E8
02
DB
18
00
07
D8
F3
F2
EF
F8
07
E5
15
E8
0A
00
F7
E2
09
34
13
27
27
25
F7
ED
2F
D8
05
0D
E3
05
17
C2
07
C3
F7
42
13
18
EC
F0
EB
0F
20
16
EB
28
46
D4
36
00
DD
FC
E5
D1
DF
E2
DA
35
16
F1
33
D3
EC
EE
E6
E3
F8
F3
EC
D7
E7
F5
15
F8
F1
EB
FD
E5
F6
20
05
2A
FD
EE
1B
CE
F3
F9
57
DE
FC
F7
E9
00
FE
11
18
BF
01
16
18
1F
F6
EE
FB
F4
18
4A
0A
D0
44
FB
0D
FB
DF
FA
12
F0
E0
FF
E1
F3
E8
FE
1B
DB
ED
D6
1B
E9
E6
DB
EB
F0
F0
FD
EA
F2
20
06
EA
14
F6
D8
13
2D
FC
30
31
1B
F3
F6
42
DD
FB
02
BC
E4
26
EA
17
DA
ED
56
01
48
F2
F9
E7
EF
0B
F1
E2
E4
3F
E4
4D
E7
D8
F3
F9
D2
E3
D9
D3
23
0D
03
34
DC
E9
E8
E5
E0
FA
F3
F6
E6
E2
FD
0A
F2
00
E7
02
EA
E7
30
16
2E
03
EB
1F
D6
EF
EB
4C
ED
FC
FF
EB
E9
00
0E
1C
B5
04
10
03
23
FE
E5
0C
EA
12
43
0D
D6
3D
F3
17
EE
E1
07
02
03
E8
F5
EA
ED
DD
F2
36
D9
E7
EB
E0
E8
03
EF
D8
DC
EB
00
14
00
07
EA
FA
DB
F2
1D
1D
27
08
F2
1E
DC
EE
F9
4C
E1
06
17
E5
EE
0D
17
11
C8
FA
1F
10
21
F4
EA
F6
FC
24
34
00
DC
3F
F9
1C
E2
E6
FF
18
EF
D1
06
DC
F5
F4
EC
25
EB
F3
F2
02
E9
04
FB
EF
E7
02
FD
0E
F5
1E
EB
E7
E5
F9
1A
2A
41
0F
06
51
FA
F1
F3
48
E1
05
0D
E4
EF
18
02
18
BA
F7
3C
F4
2D
FA
E9
F8
F4
1D
1D
05
EF
67
F6
36
EB
FA
0F
0B
EA
EA
F3
E8
0C
EC
FA
2C
FA
01
E7
16
05
03
E8
F8
F7
FD
FB
10
F8
21
EB
0D
F2
F2
F2
03
38
12
2D
2E
17
FC
F9
29
D4
16
02
E6
01
1E
CD
0D
D8
F1
3F
12
1D
EE
03
FC
1C
22
17
F9
16
35
E4
29
F9
E0
0B
FE
D1
E2
EA
D5
36
20
EA
34
F3
EC
D0
0A
F0
00
E5
F2
EF
F0
FD
11
E9
15
FC
09
F9
F1
D8
1A
47
09
34
33
01
E4
FA
4D
C6
0C
FE
BA
EE
28
F0
08
AB
FA
60
01
33
F7
F3
F8
08
15
0F
FA
F8
51
E8
39
E6
D8
F5
01
C6
CD
D8
BD
1F
14
C4
1A
D6
F4
F0
F8
F7
F0
F0
F9
D3
ED
06
0B
F4
07
DE
E4
BE
03
FA
2A
43
15
12
52
F8
DA
07
3F
DD
0E
F1
E1
D8
23
F4
13
9D
E4
7F
FC
26
EB
D8
EB
02
0F
33
09
FE
4F
FE
25
EF
F8
06
02
DB
DD
DD
D2
06
FC
EC
3D
F2
01
E2
F0
E2
11
F1
E5
E8
E0
FE
20
01
0D
D4
19
E3
02
0C
13
45
E9
DC
15
B8
FF
FF
52
E1
10
01
F2
F6
03
04
19
C0
03
0C
21
12
EE
03
FA
E1
26
36
00
F2
34
F5
0F
CC
F5
01
21
F3
D8
0A
F0
FE
ED
00
2D
C9
E8
ED
EF
CD
EE
FB
ED
EA
03
F3
FA
DC
F0
D1
E0
E5
F4
36
FC
14
18
F2
32
F3
EF
DD
46
F6
F9
04
EF
F8
03
0E
13
D2
E8
08
F4
31
0C
EA
FF
FD
10
32
0A
D7
58
E2
37
F4
ED
FB
EC
F4
ED
15
E0
EA
D4
01
FF
08
FC
06
F8
04
F2
17
F8
FD
FB
00
FF
02
01
05
E3
F3
0A
09
02
ED
FF
EA
FE
F5
10
FB
F0
15
F5
01
19
07
09
F0
FC
17
00
F9
F9
03
16
0A
00
F6
F5
E2
06
07
E2
FF
F2
0D
08
F6
0E
0E
1B
0C
17
FF
E7
F7
2C
F1
FA
E8
20
EE
0C
DB
FA
FF
F4
F9
FD
02
09
EE
0F
F2
ED
EB
10
2F
1B
25
16
09
03
FC
2E
E2
FA
FF
DA
09
11
CF
0B
D9
EC
2F
15
12
F3
07
DD
0F
1D
14
EA
26
34
EC
28
F8
E3
04
EE
CA
DB
EE
CB
2D
12
B1
58
E4
EA
EB
F7
F6
0C
EE
E5
E6
E8
FF
20
FA
F8
D4
05
D0
04
F8
13
4D
F9
F0
2F
DB
E0
02
55
EC
14
EB
DA
E1
14
FC
14
B5
04
50
F0
1D
E1
EB
04
F9
20
37
0E
F5
48
F1
26
DF
F6
F8
0A
E3
E0
DC
D9
00
F8
F3
12
DD
F4
E6
11
EE
F8
F2
EC
FF
FE
02
FD
EF
0B
F1
EF
FE
F1
15
16
23
14
19
38
14
F5
EC
31
EA
01
08
CF
F3
17
06
15
E5
F6
30
E2
3F
07
F4
04
F7
FF
1D
FA
E0
47
E9
44
0B
EF
08
F2
F2
FA
F4
E2
F6
EE
D4
39
F6
F0
DD
08
F9
04
00
F5
ED
EE
F2
25
FD
FD
F3
FC
E9
F5
EA
1E
3F
F4
1B
33
EF
EE
FC
43
D8
FF
F8
AD
E8
1F
F9
31
BB
FE
4E
03
30
F8
FD
FA
FC
15
1C
03
FB
3B
E9
30
F3
E8
FE
00
D9
DE
E5
E1
12
FC
E6
13
DF
F5
FE
11
FA
F3
05
FC
F0
FD
FC
F7
FB
1C
F5
EB
ED
05
12
22
1F
02
13
59
09
E3
F8
1B
FD
06
F6
C8
E7
12
FE
1B
E7
00
40
F0
3B
F9
FD
06
FA
FE
13
03
E3
46
ED
46
04
FC
0D
F5
F2
10
02
F9
05
F2
E6
4A
E5
F6
ED
DD
F0
0D
EE
E3
E7
E2
FD
30
FE
08
E2
18
D7
FC
1B
12
3A
E3
D7
15
B9
F0
02
59
E2
18
FA
E8
F8
FC
08
0D
BB
12
12
21
15
F0
F8
07
EA
24
45
08
E5
51
F3
FC
D8
EB
0A
20
06
E6
F0
E3
05
EC
EF
11
FE
FF
FE
18
01
14
ED
0A
EC
F6
02
01
00
11
F0
0A
FB
FE
E1
09
35
08
17
31
28
F5
F4
1A
E3
14
FA
E9
FB
1A
DD
16
D8
02
3C
0D
17
E6
02
FD
02
1B
10
FE
22
37
F0
2E
F3
EC
08
F4
D6
EE
F5
DF
2A
22
F5
EC
E7
F5
F6
05
FD
E9
14
04
03
02
05
D0
F3
1C
08
E3
10
03
15
0B
D8
10
06
32
15
E5
EC
F0
17
F8
02
E4
E2
0C
01
0F
09
F5
11
D4
3E
18
F0
07
F3
DA
ED
04
E0
31
FA
42
13
0B
00
EF
F6
1B
0A
14
ED
E1
FC
2A
CF
F4
E5
F0
D6
EE
F1
EF
F0
F5
01
F6
ED
13
F3
F8
E9
F0
25
11
1A
0B
0A
3E
ED
DA
E7
42
E4
01
01
DF
F2
15
12
FE
DE
EF
1D
F4
3A
08
EF
ED
00
FD
2A
04
E3
4F
E6
33
F6
F3
00
F1
E6
EE
06
EB
FA
E4
EE
17
FA
F9
F9
E1
E1
02
FD
FA
E5
04
0B
0A
FC
F0
FD
F1
F6
04
25
25
14
0D
05
4A
F8
E7
0D
3C
FC
00
03
E9
FB
12
03
0A
D8
FA
37
F0
16
0B
F5
02
07
0D
25
0D
F6
40
FC
2A
00
00
F8
F8
EF
E9
04
E7
F3
EF
F4
2B
F2
FF
DF
16
F5
04
D6
05
01
F6
FB
03
FF
09
E9
14
0F
FB
F1
02
33
12
27
1F
18
0B
F6
35
D8
FA
0E
D8
05
0B
D4
0D
DE
02
2E
0B
1A
F3
0C
EF
10
19
10
EB
29
30
E8
28
0D
E1
0F
E4
CD
DD
DD
D3
2E
19
F5
30
F3
06
D7
1A
00
FE
E5
F3
EE
F5
FC
08
F0
16
F6
12
EC
F4
EE
18
3A
0F
2C
32
27
EE
FF
2C
E1
0B
08
D9
F6
16
C6
03
CF
E7
3D
17
1F
E5
FB
EF
16
20
10
EC
14
37
E4
2F
F8
DE
05
F5
D9
D8
D7
DC
39
15
F9
23
E0
E3
D9
04
F2
F5
E1
DE
E9
E9
F9
FB
03
18
F9
FC
EF
FC
01
32
32
06
11
43
0B
DC
F1
39
D6
FF
0E
DB
E5
1E
0B
0B
CC
FD
38
F4
32
EE
F4
F3
07
18
11
FA
ED
5A
F0
30
F5
EA
FD
0D
D0
DC
F6
DD
15
F1
FA
35
CF
F2
E2
E0
CE
F9
F9
F6
D7
F8
F5
0E
E8
E2
D6
F0
E1
EB
2B
FE
38
01
F0
30
D0
E3
E3
55
E8
FE
F5
F3
F8
FB
0E
16
CE
F3
07
10
0F
EF
DC
0A
E2
07
42
FD
DF
40
F6
12
EF
EB
F5
FA
F5
D2
FF
E0
EC
E8
EC
27
E7
09
E2
16
F7
06
D6
FD
E8
F5
07
FC
ED
0A
F0
06
EB
EE
FA
02
31
1B
30
24
1B
FB
F9
2F
DF
FF
F9
EB
00
05
C7
1D
D1
DF
37
11
23
F3
F0
F7
14
06
22
EE
1B
35
DD
23
E3
F3
06
F3
E8
F4
FD
DF
2F
08
B0
2E
D5
EC
E6
EC
DA
05
F9
EA
D6
FB
16
12
E3
00
DA
E4
B9
F4
0B
25
5E
0B
09
4D
F1
E8
0A
52
E0
0A
E6
E4
EB
19
FB
1B
9C
F2
6B
EB
2D
ED
D6
F9
0E
26
44
04
09
60
F8
2D
D3
FB
FA
0D
E4
D5
F3
D4
11
F5
FE
35
EA
F9
D8
14
FF
04
DC
FD
F9
FA
F6
05
FC
06
E6
07
FB
F0
F4
10
3D
0B
2E
18
23
FC
F8
3D
DC
FC
FC
D1
02
07
CA
1E
DA
FD
33
1B
23
EF
F8
E6
17
12
21
ED
17
35
EA
31
FE
E7
10
E7
CC
EB
E7
D8
33
1F
F2
32
EF
01
E4
0B
11
0F
D6
EF
FC
FD
0D
13
ED
25
E8
18
EE
F0
D8
0F
3C
10
32
27
1F
F3
01
22
E5
09
0B
EA
F2
15
C6
17
C3
EE
3A
0F
1F
F0
FB
F5
1A
18
1D
F3
1A
3C
E5
35
EF
DE
10
F9
CB
E3
E7
D3
3A
2C
0B
5A
09
F6
EA
FF
EC
0C
E9
F6
F1
EA
E6
16
04
E9
F7
1F
FE
FF
EF
0E
12
F3
0C
FA
D3
02
06
42
E6
FD
FB
E2
08
F8
01
18
F0
11
0A
10
02
F1
00
FB
0B
0F
0C
F8
FC
FD
EF
FB
EB
EB
FA
06
F4
EB
F4
F6
F9
FC
04
22
E7
E5
DA
FE
E0
EA
E8
E4
FA
F8
FD
03
EE
F5
ED
E6
F7
F8
2A
11
17
1B
13
41
FE
E2
FC
40
E0
0A
FB
E9
F6
0E
10
13
CF
FD
22
FF
22
0A
F7
ED
FE
16
25
01
E9
42
EC
33
EF
EC
04
F1
E7
F0
0E
E7
F3
E2
EF
2F
DA
DA
EA
E5
D6
FC
F2
E9
E4
ED
06
18
F7
01
F1
00
DC
F4
22
22
35
16
01
45
DA
E2
F1
5B
EE
06
0E
F0
E8
1A
0F
08
C1
F8
2D
04
1A
FC
DF
EC
F6
11
3E
FE
DC
46
F6
17
EC
E7
03
0F
E9
D8
F7
D3
F9
E4
F3
22
DF
F4
E8
F8
DB
F4
F9
F9
F0
F8
08
F5
EF
0E
F3
E2
F0
FA
11
23
10
09
FC
3A
F9
DE
DD
33
EE
FF
07
D4
E4
11
11
14
D4
E6
2A
EE
46
05
EE
F3
FD
00
1B
FC
D0
54
EF
31
09
EF
04
FD
F3
02
FB
F0
F6
F1
CB
3A
DB
EC
EB
F9
F4
0C
F1
FF
DE
F0
F2
11
F8
0A
D0
FF
DC
F2
F7
0D
48
FD
01
30
FA
FA
FE
49
E2
07
EA
C0
ED
02
F9
29
BE
05
45
F8
18
EF
EA
09
FF
14
2E
08
F1
64
E9
2A
EF
EC
FA
00
E4
EB
EB
E7
F9
F9
F5
26
EB
FD
F9
17
F8
03
E8
09
EE
FB
FE
0A
F9
FF
F7
03
FA
F6
EE
0B
26
20
23
19
16
FB
FB
24
DF
00
F7
E2
F9
06
D3
1B
CC
F0
36
12
16
02
F7
ED
1F
18
21
F6
12
2A
EC
2D
F7
E3
0A
EA
E9
F1
F7
ED
22
0C
CA
4E
DC
FA
EC
FA
ED
05
F2
E2
D6
F5
12
1F
F0
11
DC
FE
D4
F6
14
18
5F
F4
F1
33
CA
E6
F1
5A
DA
10
F3
E0
E4
13
00
13
A4
00
47
07
1C
E4
F1
FE
FF
1E
42
06
FF
5B
EA
1A
D3
EA
05
1D
E8
DC
F3
D5
11
FB
FB
06
EC
F8
E4
08
F8
EF
01
03
ED
05
06
F7
EC
00
F4
D9
ED
F5
15
14
04
10
23
53
23
F2
E7
1A
F9
F6
F8
D7
F7
18
FB
18
E5
FB
28
E0
35
20
00
FE
08
FD
FB
04
FE
35
E2
47
1A
F1
05
EF
EE
FE
FE
E7
F5
F7
FD
1B
EF
FD
EB
0D
F5
0F
DE
FB
FC
FC
0A
0D
F1
1B
F8
01
FF
F9
F1
FD
35
0C
29
28
27
F9
F5
1F
E9
0E
00
F1
04
01
D1
02
E9
EF
27
18
1B
ED
F3
EE
15
1B
13
F0
17
43
EB
1C
EC
EC
0C
E6
DB
E6
F4
DC
2F
1A
E6
35
EC
03
E6
ED
F4
06
EF
E9
E5
E6
FE
23
05
01
D3
13
E0
F5
07
07
3B
F4
D8
18
C2
EB
FB
54
E7
16
FA
D8
01
E7
04
0F
C4
10
0F
16
0A
EB
FB
FF
E6
28
3D
10
E0
2E
EC
02
E3
F6
00
16
FE
E8
03
E7
F9
FA
FE
29
FF
F7
ED
EF
E7
FE
09
F1
F6
F9
FB
15
FE
12
05
04
F8
08
1E
22
03
FA
F3
1F
E9
FB
F5
2C
00
18
01
E3
E9
02
01
14
DA
09
12
ED
27
0B
FB
04
F2
1A
27
14
E1
3F
EC
29
EF
00
07
15
F5
05
FB
FE
F0
E2
F9
39
D3
D9
E5
DD
D9
F6
F0
E6
E1
EE
F9
0F
F5
04
F1
03
DD
E1
1B
19
29
FC
EF
29
DD
D5
E4
59
E2
00
12
F5
DF
00
1B
06
B7
0C
16
17
25
F9
D6
F2
F3
19
3D
FE
CC
4D
F3
16
E8
DC
F3
04
F1
E0
01
E6
EA
E7
ED
13
F6
F4
E2
EB
E3
F4
E2
E6
ED
F2
01
F0
ED
08
0C
E2
FD
EB
EF
28
24
14
3B
4E
11
DD
13
39
D9
FF
0D
EB
EF
37
E8
06
B5
EA
68
FC
27
16
FB
EB
0A
10
01
E9
11
40
ED
44
DE
DC
F6
EF
CD
CC
DD
BD
28
05
B5
45
DC
F3
EF
EF
E2
15
F8
EB
E4
FD
09
17
EF
03
CB
FC
D9
0B
00
19
4A
FE
FC
3C
E1
EB
0B
49
EB
14
ED
D6
E6
18
00
28
B1
EC
53
F6
15
E8
EB
08
0B
22
37
0E
FC
56
EF
19
D0
05
0F
13
E6
DC
E7
D2
0E
F9
F5
24
FB
07
EE
05
08
11
EE
05
FD
FD
FE
09
F6
0C
F9
07
F3
05
FE
0E
37
16
25
20
0E
FA
07
25
E2
03
07
EF
05
09
D5
07
DB
E9
36
13
0C
F3
FF
EE
0E
18
17
F8
1B
3D
E9
1D
F9
F6
00
F0
E0
E1
EF
DF
1A
21
F8
2F
DA
F6
E9
DC
D7
FE
F6
EE
DE
F4
08
16
E1
E9
D2
F2
CB
E8
30
0E
30
09
E5
25
CF
E4
E7
58
EC
07
06
FB
F7
F8
11
0D
C6
F7
17
05
0E
FB
ED
FE
E8
1D
39
05
DA
3A
E4
15
F6
E8
F4
00
F9
D5
FB
DA
F6
DC
F5
26
E2
E9
F0
EA
DA
F4
FA
F1
E6
EC
08
18
EE
F2
EB
FB
D6
E8
2C
0F
0F
FC
E9
1B
D5
F1
00
4B
E4
09
09
EC
ED
01
0B
0B
D1
F9
11
05
1D
FE
E0
07
E4
08
33
00
DC
37
E7
07
EB
EE
FB
FE
FC
D8
FF
E5
EF
E2
08
FF
01
FA
07
F5
F9
FD
FC
01
11
FA
FA
F8
F7
FD
FD
FF
09
FD
02
FC
FF
0E
F9
01
02
04
08
04
02
FC
FB
02
F6
0A
FA
00
FE
F8
FD
FF
F3
02
0C
0A
FD
FA
07
0C
FB
F3
F7
EE
05
01
01
EF
06
0A
09
0F
F5
FA
FF
1F
F4
02
FB
08
F8
FB
FA
13
EC
F8
00
FE
01
10
F1
05
DC
F9
0B
FC
24
13
10
0D
08
0D
FC
24
E6
07
FC
EF
0A
09
D6
20
CE
F1
1D
16
16
F6
FB
F6
0A
0F
1F
F5
18
28
ED
23
01
F5
12
F0
E7
F4
EE
ED
15
07
F5
29
EF
06
E4
1C
09
FC
DE
05
E6
05
05
05
FB
19
E8
0F
E7
F5
F2
04
3D
27
22
30
1D
F3
FC
2A
EA
0B
FD
E5
FF
14
C5
17
C2
F3
42
17
1E
EE
00
F2
19
1A
1A
FD
28
40
ED
2E
FC
EC
06
EA
D9
E4
F4
D9
31
1D
E7
17
DA
FE
E9
2A
EE
FD
09
F7
EF
FA
F1
FA
E4
1F
DA
EF
F0
F9
0C
05
2F
FB
03
50
11
F8
E0
23
F3
11
F4
C3
E0
10
F7
23
D7
F0
3F
F7
30
03
FA
F7
FD
FF
0D
07
FB
60
E2
3B
07
F1
20
FC
F8
06
05
F3
FE
EC
F4
17
F7
0F
F6
12
FA
02
EB
FB
EF
FD
06
07
F3
0A
F9
06
FD
F6
EC
06
24
03
29
11
12
07
08
1E
D9
0A
02
E5
10
09
DB
0E
D7
FE
25
0F
11
F2
FF
F4
0F
0F
11
F2
17
33
E6
24
F7
E5
06
00
DE
EF
EF
E8
1F
24
F4
FC
0A
08
00
FB
03
09
0C
FE
09
F9
07
12
04
09
08
FD
08
FC
01
09
05
FD
FC
FC
06
FD
0E
01
03
0E
FD
FA
00
F3
04
06
FF
04
FE
F9
F2
04
03
0F
FC
09
FE
FB
11
FB
F8
00
F5
10
FB
FC
0B
09
07
FB
09
FE
C1
2C
EE
EE
E4
F5
ED
EF
E7
ED
E3
F8
01
14
F7
0C
EA
E5
DE
01
DE
26
53
FE
0F
51
F2
E8
02
46
DB
11
F6
BA
E9
35
F4
0E
9C
FA
70
06
2A
F3
EA
EF
04
1D
16
F5
05
4A
E6
2F
E5
DF
F4
FE
DC
CC
CE
D0
1E
07
BD
43
F7
F0
E5
F3
F5
0C
EA
F3
E7
EB
FF
26
E8
FF
D6
FF
E1
FD
F0
17
5D
FB
F5
23
E5
F5
0E
44
DA
12
E6
D0
ED
18
FE
1D
A6
FD
51
F7
22
E6
F7
08
07
1D
2E
FB
06
50
E5
1F
CD
F0
FD
0A
EB
D6
D9
E0
12
07
FE
FC
12
F3
FB
FD
04
0D
00
06
08
FC
07
0A
F9
02
01
FA
FF
05
00
04
FE
F7
FE
F9
F7
F9
06
F6
10
00
F5
00
03
05
FB
02
01
02
FC
F9
05
0F
FA
07
04
0A
F2
09
FE
FF
F8
FE
FD
10
06
09
05
FD
04
01
F7
FA
F7
33
D6
E7
DC
E1
E9
04
F4
DE
ED
DE
F0
16
F9
07
E6
0B
D0
E9
23
05
3C
FD
DD
1B
C5
F8
E5
51
E8
09
08
E4
F0
04
13
18
B9
0B
11
13
21
EF
E5
04
E1
13
39
FD
CA
44
E8
19
E9
E8
FB
05
04
DC
F9
E4
FF
DF
C9
47
E9
EB
DC
F2
F4
03
E7
EF
E6
ED
F5
21
ED
0C
D8
03
D3
F5
E9
19
66
EE
10
46
E7
EF
F6
4D
D6
1F
F5
D1
DE
1C
F8
24
9C
FC
5B
F8
2D
D0
E6
FE
03
23
3D
09
E8
54
EB
32
DC
E8
FB
15
DD
CA
DC
C3
16
12
FF
38
EA
07
DC
22
08
0B
DE
F4
FF
F1
F6
10
FB
13
F6
13
12
F8
D9
0A
3A
01
37
1B
25
05
02
37
D3
15
09
D4
02
1C
CF
1B
DE
F1
30
0C
28
F0
10
F5
0F
2A
15
F6
17
36
D7
32
00
E3
14
ED
D0
EE
D8
D6
34
23
EF
31
EF
EF
E3
14
FC
F4
EA
00
E2
F3
02
0A
FD
1D
FD
00
F3
00
E8
11
27
06
28
3E
05
E5
F6
32
DB
07
06
AF
E3
13
F4
1B
C7
04
4B
07
3E
EB
04
FE
EB
10
0E
00
DD
40
DD
4B
EC
F1
F7
06
DA
E9
E5
DD
09
02
C2
37
E3
E2
DC
01
E1
04
EC
E9
D9
EB
0D
23
F3
0B
DC
F8
DD
F6
E2
24
4B
F7
0C
47
F7
EA
0A
3E
D2
0B
F5
C7
DD
1C
F5
13
A5
F7
65
F0
2D
D5
E3
F1
09
21
34
03
F1
5A
ED
21
E6
DE
05
02
D2
CD
D8
C5
1B
0C
E2
33
F8
F4
EE
E7
FD
08
F4
F9
E6
EB
E7
2D
FB
01
D7
23
E7
F2
0A
06
3F
E7
D3
0C
C2
07
FA
51
E1
1A
F5
E8
FE
EE
03
15
BA
0F
F6
21
08
DD
F2
03
E6
0C
34
01
E7
28
E8
F7
DF
F4
01
16
FF
DC
F4
F8
F2
FA
F7
F9
06
FC
00
FF
FB
FE
04
0A
09
05
04
08
00
F8
02
09
FD
FB
0C
FC
00
02
FF
F8
02
FC
09
FC
0E
09
06
FA
08
F7
F8
04
0A
00
FC
F7
F5
07
06
02
F4
01
FE
0B
09
F7
FB
FE
FD
0D
FB
F8
FC
05
FD
07
F7
F8
F0
28
DE
E9
E7
F0
D3
F1
F4
F2
D7
FE
01
FB
F3
03
E1
F7
F3
F3
2D
15
21
0F
FF
4F
ED
E7
E6
4A
F5
F1
F8
E0
F2
12
12
0F
D8
E5
27
F6
3A
02
E8
F7
02
10
26
FE
DF
41
E3
38
FA
E8
FB
F4
F4
E3
06
D6
F4
E4
CA
38
EB
E7
DE
00
EC
02
F7
F0
D3
EC
01
16
EB
07
CF
FB
CA
00
F1
21
54
F8
00
49
E7
E3
F8
45
E1
1A
EE
C6
E5
15
F8
19
95
FE
70
F8
2D
DD
E8
08
FA
1B
3D
FD
F5
5D
D8
24
E8
E4
04
02
D6
CB
DD
CD
14
F5
F7
31
E3
F8
CE
1B
02
FF
CE
FA
F9
EC
F1
FE
ED
1E
F2
11
F4
E7
DA
01
41
19
37
28
2F
F5
F7
35
D3
06
FB
DF
FC
1E
BA
15
D5
E2
44
1F
30
E8
02
E8
13
1F
14
D8
17
3A
D5
32
02
E4
0E
EB
C8
D9
DD
C0
36
17
F1
33
DD
EE
E7
EC
DD
FE
E9
D4
E3
EF
09
16
09
01
F6
F8
D5
FA
13
10
37
01
F5
21
CE
EC
F5
54
E0
03
17
F2
F3
12
11
08
B9
07
1F
0B
23
FF
E1
EF
F9
17
37
F5
E3
3E
FA
0A
E6
E6
F5
0A
F0
D0
FB
DB
FB
EF
C6
05
F2
ED
0A
E8
13
EE
06
09
F7
FB
06
E9
04
26
06
E1
D8
04
E2
22
36
00
FC
40
DC
F7
03
1A
EB
07
0B
D8
E8
3C
FE
14
B4
F2
64
01
2C
F7
07
0B
D9
10
0B
1C
EE
24
17
39
DE
00
F2
18
EC
EA
D9
E9
0D
18
06
34
D5
EB
E4
E7
D7
E9
F9
F0
E4
EA
01
09
E6
FE
F3
FA
F3
F8
31
04
14
07
04
31
E1
EA
EB
45
DF
01
04
DB
F0
10
11
22
DB
F8
10
04
2F
05
E9
F7
F2
14
3B
FD
C3
44
E6
2A
07
ED
04
00
F2
ED
0C
ED
F0
D9
F8
33
DF
05
D6
23
02
08
D7
00
F9
F9
FC
0D
E3
1D
E2
02
00
F4
E0
18
40
0B
2D
28
26
08
F4
2E
CF
06
FC
D4
FE
19
C2
18
C6
EE
3F
1B
1E
E4
08
EF
24
10
18
DC
1F
38
D4
39
FF
E6
06
F7
D7
E4
E8
CB
3B
1B
F6
2E
C9
E4
E6
F0
D3
E7
F1
F0
D5
F8
03
04
ED
F8
DF
E7
DF
E6
36
15
1C
13
00
34
F7
E8
DF
4C
DE
F5
04
E0
EF
06
17
0F
DA
FB
0E
F0
2D
07
E5
F6
F8
11
3F
10
D2
54
DD
26
FA
DE
FA
F5
F8
EA
08
DA
F9
D7
F1
74
F0
F9
DE
FC
DF
0D
DC
EB
DA
EB
E2
44
EB
F5
D0
4C
F5
F3
E9
03
46
F4
00
FF
D3
06
F0
46
DF
F8
EF
D7
FE
EC
01
18
D7
05
15
11
0C
D6
F5
F7
06
19
30
FC
F0
25
EB
FC
E7
E7
FE
15
E9
EB
F2
EB
FA
F7
F7
36
F9
04
E2
24
FB
0C
DB
FE
EE
03
F7
00
02
16
00
0C
F5
05
F8
FF
3B
0F
28
23
1C
F9
F6
29
D5
00
03
CF
FE
16
C8
16
D7
ED
40
16
1B
EF
01
F3
0F
1F
1E
F2
13
36
DD
29
FD
E2
03
E9
D1
E1
E8
E2
21
10
E2
4F
F4
F9
E9
F3
F8
0D
F4
E1
DC
EB
0F
23
FB
FB
D4
0F
DF
00
12
1C
50
F5
E8
21
C4
EA
05
49
E8
19
F8
E1
EA
FC
04
0B
BD
F7
1C
0C
10
F1
F1
FE
F2
27
37
FE
F2
46
EF
08
D6
EF
FE
10
FC
E1
F8
F0
09
F0
03
32
E7
F0
EA
E1
E3
EF
08
01
E8
02
08
FB
E6
F4
E1
FB
E6
EB
35
08
14
0F
FC
28
EA
F6
ED
4B
EE
F7
F4
E3
EE
00
0D
1B
CB
F7
0C
EF
2E
FC
F8
0D
E4
FE
39
17
CF
4C
E8
29
F9
E8
03
F7
FD
F1
0E
EF
EF
E0
FA
24
E8
01
E0
1C
04
06
E2
F8
01
E8
F0
04
F2
17
E8
12
0F
F0
DD
11
40
06
3B
39
2D
09
00
2E
C9
10
0C
D1
06
21
D3
09
D1
FD
42
14
1D
DE
10
E8
15
28
22
DF
20
3F
D7
23
F9
DD
11
ED
C8
DB
D6
CC
3A
24
F7
27
E4
FD
D5
1C
07
10
DB
FE
EB
FE
FA
06
DE
11
E2
0E
F1
FB
E2
12
3F
1A
29
31
27
F5
FC
3A
E0
06
07
E1
00
0C
C7
15
CF
E4
3B
1A
2A
EC
FB
F6
13
1E
19
F2
25
38
E2
3C
EF
E1
11
E7
D2
E5
F1
D0
39
22
B5
6C
EA
F1
DD
E4
E8
0A
F9
D9
DD
F2
06
30
F4
00
D3
10
C9
05
03
0E
68
EB
DD
21
CB
F5
FA
52
E4
1D
EF
D5
EB
03
00
10
9A
FB
45
05
1D
D4
ED
01
F5
24
40
FE
F7
4D
E5
10
C7
EA
F1
16
F2
D7
F5
E1
05
F7
04
2C
DC
E9
F0
E7
E0
EC
F6
F4
DD
EE
F8
06
F1
0C
EF
FC
EF
FF
21
10
16
03
F0
31
E2
DA
F2
3F
EE
0B
00
E5
DC
F9
11
08
D2
FE
12
00
32
FB
E6
F8
E2
01
27
0F
CE
49
F3
2B
F6
F1
04
10
FD
F3
08
EF
F0
EB
FA
36
EB
08
E2
1E
0A
04
DA
06
F2
05
FD
12
F9
1C
F2
0A
04
F2
F3
13
3E
13
30
23
27
F2
F8
2A
D5
01
FA
DE
FC
10
C3
19
D9
EC
46
0E
1F
F3
01
F6
18
23
23
E9
23
3F
DF
36
EE
DD
0F
E1
C9
E2
E2
C7
26
1C
F7
42
E2
FC
D8
1C
09
03
D1
F7
02
EE
FC
02
F2
16
F3
10
F8
EE
E5
0C
3D
1B
33
2F
2C
02
ED
2E
C8
0E
09
D8
F9
1F
BA
14
CF
F1
3E
1A
2A
EA
F7
E3
12
1B
0F
D9
1E
47
DC
3A
F2
D3
FC
F3
C7
E5
D4
C5
34
11
F3
2F
E0
E9
E5
E1
EE
06
F8
E5
E8
F4
FD
1C
F5
00
F9
F7
E6
F7
16
16
1E
FF
F9
23
DA
F5
F3
3E
E0
0D
04
DC
EC
FB
11
0E
D0
06
1B
08
1F
00
FA
03
EF
1B
31
FE
D2
41
F2
1D
E9
EB
06
03
FC
E5
EE
E3
F1
F2
DF
27
D4
ED
E5
01
F6
00
EE
F2
E2
ED
05
08
E9
13
E8
F6
EC
F2
00
24
40
FD
11
58
04
ED
EF
3B
DC
08
FA
C6
E7
27
F5
0C
B7
FB
57
EF
2C
EF
F7
06
02
17
1B
05
F0
5A
EB
2E
FB
F2
0F
02
EC
EF
EC
D7
0B
F4
