03
FE
03
FD
FC
01
FF
FD
01
03
01
00
FF
FD
FA
FC
FD
FD
01
03
FF
01
02
FB
FE
FE
01
FD
03
FC
FF
FF
00
FB
FB
FC
FC
FF
FC
00
FE
FD
FB
FC
FF
FB
01
FC
FE
FD
FC
01
FB
02
FD
FE
03
02
FB
FA
FF
FD
FB
FB
00
FE
02
02
FB
FB
02
01
FC
01
FD
03
FB
01
FA
FE
FE
04
FF
01
FC
03
FE
01
FD
03
FE
01
FB
FB
FB
00
01
00
02
FA
FA
00
FF
FB
00
FF
02
00
03
03
01
03
00
02
02
FB
03
03
FF
FE
02
FC
FD
F9
FC
FC
00
FA
0C
FA
22
07
F5
0B
1E
F3
29
2D
F8
0B
1E
1F
EC
1D
FF
18
02
11
08
26
27
FD
F0
FB
07
08
FE
29
21
1B
24
19
F9
27
0E
20
24
14
37
19
FE
08
2E
2D
FB
29
FF
FB
11
26
10
10
EF
0A
E9
36
EB
18
06
20
EF
16
25
11
10
38
29
18
FB
19
01
35
20
EC
11
09
18
F8
1C
F0
29
15
EF
04
00
2C
F3
1F
FE
01
03
19
15
19
1E
03
15
ED
FD
F8
F4
3B
15
FE
EC
02
12
FE
33
FC
32
08
30
0C
E0
2F
EA
05
35
29
E2
0A
2C
35
02
15
FA
03
FF
02
03
03
FF
00
F8
00
FE
FF
FD
FC
F9
FC
FD
FD
F9
01
00
FD
F9
02
FD
FE
F8
FA
02
FB
FE
FF
FE
01
FD
F8
01
FF
00
FD
FD
F4
FE
FC
F9
FF
FE
FB
FE
07
FE
F6
F4
FA
01
F6
00
FA
FC
FB
03
FE
FD
00
FC
FB
FD
FA
FA
04
F9
FE
FB
FE
FC
05
FD
01
FF
01
FB
FF
FC
FE
FE
02
00
F5
02
FC
F7
F8
01
FA
FD
FD
FC
03
FF
06
02
FF
00
F9
FB
FF
FC
00
F9
FE
00
02
FD
01
01
FA
03
FA
03
F9
F6
FD
08
00
FD
F8
FE
FC
FE
FC
FC
FE
FE
02
01
FE
FC
FF
FF
FC
FB
00
04
FD
FF
FC
02
FE
FC
00
FC
F8
F8
00
FB
F8
FE
00
FD
FC
FE
FF
FE
FD
03
FF
F9
FD
00
FB
FC
FC
03
FC
FE
00
FC
FD
00
00
FA
FA
03
F9
FB
00
FF
02
02
03
FA
02
05
FF
01
FD
02
03
00
FB
02
FF
03
FA
01
01
FA
FF
02
00
FA
FE
FF
FB
FA
FA
FE
FA
FB
F8
FD
FD
02
FD
03
03
02
03
FB
FE
01
00
03
FC
FE
FA
01
F8
FE
F8
FC
00
FA
FF
00
01
FF
FB
FC
02
01
FA
01
FE
01
02
03
03
01
02
FE
FE
FF
FD
FE
03
FD
FF
FB
FC
04
FF
FA
01
01
02
03
FD
FE
FF
FD
FE
FF
FB
01
FF
FC
03
00
03
FA
03
00
FF
FA
00
FC
01
FE
00
FE
03
03
02
FE
03
FE
FB
FC
FC
02
01
FE
01
02
FA
03
00
FC
00
FF
FF
02
FE
FE
00
01
FF
01
FE
03
02
FC
FC
02
FB
FF
02
FE
FF
01
02
FB
F9
FF
FA
FC
FD
FD
FE
02
00
FE
01
04
FD
00
FC
FB
03
FC
02
FC
00
FC
01
00
FB
03
FE
FD
01
FE
00
FD
02
00
00
FA
FC
00
FC
01
FB
03
02
FE
02
FD
01
01
FE
FC
FE
FA
FB
FE
FC
FF
FD
03
02
FE
03
FA
03
FE
FC
00
FD
FA
FB
FF
FE
FE
FB
02
FE
F9
03
01
01
FE
FD
00
02
02
F9
F7
FE
FD
FC
03
02
FF
00
F7
FD
FD
FE
FD
FC
FB
F9
F9
FC
03
02
FF
FC
04
FE
FB
FE
05
01
FD
03
FE
FD
FD
00
FF
02
FE
F8
04
F9
FC
FF
FA
00
FB
00
00
FE
FC
01
FF
FD
F9
03
02
FD
FD
02
04
01
FD
FC
FE
02
FC
03
04
FE
FF
FA
00
FB
FD
00
02
FB
00
01
FE
FE
FD
00
01
FB
00
FB
FF
FB
FE
03
02
FD
FB
02
FC
FE
FA
02
FC
00
FF
FC
FE
03
FE
00
FB
FB
FC
FA
FD
00
01
00
FF
02
FD
04
02
FE
FB
04
01
FD
FC
FE
04
FF
01
FD
FD
FB
FF
FA
FE
02
02
FC
FB
FD
FE
FC
00
FC
FF
00
04
01
01
FB
03
00
FD
FB
02
FE
01
01
01
03
FE
FB
FE
00
02
FE
FD
02
FF
FE
FE
FE
00
03
00
03
FC
01
FC
02
FE
FC
FC
FC
04
FF
FC
FC
01
04
02
03
FE
FF
02
00
00
01
00
00
02
FF
03
01
FC
FB
FB
FB
FD
FB
02
03
02
04
FF
FF
01
01
F7
FB
01
FD
03
FA
FF
FF
FC
F9
00
F9
FE
FC
FD
FB
FE
01
02
FA
FA
FF
02
02
03
02
04
00
01
FD
FC
03
FD
03
FC
FC
F8
FA
FE
00
00
FE
01
00
F8
01
00
00
FC
FE
FF
FD
FD
F5
FB
FE
FC
FC
F7
F4
01
02
01
FA
00
FF
02
FF
00
FB
F6
F8
F5
FD
FC
FD
FB
02
FE
FC
FB
01
FB
FC
F6
03
FE
FF
FD
F9
02
FE
02
F9
FC
FD
03
01
FE
FC
00
FA
F6
FB
FF
FB
01
01
01
F9
FD
FF
FD
02
FD
FF
FA
FF
F9
04
01
02
00
FE
01
F9
FC
FA
05
FB
FB
01
01
02
01
FF
FD
FB
FF
FD
FF
FA
00
01
00
FE
03
FD
FC
01
00
FE
00
01
FA
00
00
FD
FE
00
FB
02
00
FF
FC
F9
FB
FD
FC
02
FA
FB
FA
00
FE
FD
00
FF
02
FB
FE
03
FE
01
04
FE
00
FC
02
F9
01
04
F9
FD
FA
F9
02
02
FE
00
FA
02
01
FF
01
FC
01
FB
FF
F8
FF
FB
02
03
03
FC
FB
FC
03
01
FA
FC
02
01
FD
03
02
FA
03
00
FD
FC
FB
FE
FF
00
FF
FA
01
01
FF
FF
FD
01
03
03
F8
FA
FB
FA
03
02
03
FE
FF
FB
00
FE
FE
FC
02
FB
FC
FE
FA
00
03
00
FB
FC
FD
FA
FC
01
03
01
03
02
00
FC
FC
FD
FD
04
03
FC
FF
FC
F9
FE
FC
FC
FF
FF
FF
01
FF
00
FF
00
FA
00
02
FE
04
FB
FB
02
F9
FE
03
04
FE
FC
01
01
02
FF
00
FD
FD
01
FE
01
FF
FF
FD
03
FC
00
FB
FE
FC
FF
00
01
FB
FA
FC
00
00
FB
FA
03
02
02
FF
FB
FB
FC
FC
FF
FB
FE
FE
FC
FB
FC
FE
FF
01
FD
FF
02
01
00
FE
00
FA
FF
FF
00
02
FC
FC
FB
FC
FE
FE
00
FE
00
FA
FC
FC
FA
FA
FE
02
FB
02
02
01
00
01
F8
05
F9
FB
FE
02
F9
FA
F8
FA
F9
03
FC
04
FE
FD
FE
FE
FC
F8
00
FD
01
FD
FF
F8
FE
02
01
FF
FD
FF
FE
FB
01
FF
FB
FB
03
FB
FF
02
FC
00
FA
F6
02
FF
FE
F9
FA
03
03
F9
01
FB
FC
02
FB
FB
FA
04
FE
FD
00
00
FD
FD
05
00
05
FD
FC
02
02
FF
FF
FD
00
03
05
FE
FF
04
FF
FC
FC
FC
FB
FE
FC
F9
FC
00
F9
FD
FE
01
00
03
FE
F7
FD
F7
FD
FC
FC
FD
FE
FE
FF
FD
00
01
00
FF
FE
FF
FD
01
02
FE
FE
01
00
00
01
00
00
FB
FC
03
FF
02
FC
FE
02
FD
FC
02
01
FC
FF
01
FF
00
02
FB
03
FD
FC
03
02
FF
00
03
FC
02
FB
01
FD
FE
FE
FB
FE
FF
FE
FB
02
01
FD
FB
FD
FF
FC
FE
FE
00
FF
00
FF
03
02
03
FF
FC
03
02
FF
FB
FB
FB
01
FE
00
FC
FE
FE
FB
FD
00
FF
04
03
01
02
01
FF
FB
01
03
FB
F9
FF
FB
01
00
FF
FC
FF
02
FB
F9
FD
FD
FE
FB
FF
01
00
FB
FD
04
00
FB
FB
03
FF
FE
F9
FC
00
05
FB
FB
FD
FF
03
03
FF
FE
FD
03
00
00
00
FD
02
01
03
01
FB
02
04
02
01
02
FF
FC
01
FE
02
FD
FC
FB
F9
FE
FB
03
FE
FE
02
FE
01
FD
02
FD
FE
FD
FA
00
02
FA
FA
00
01
04
FB
FF
FE
FA
F9
FD
FA
FC
FD
04
FE
FE
01
F9
FD
00
FA
FB
01
01
FD
F9
FC
F9
FE
FB
FA
F9
01
00
FC
FF
FE
FA
00
FD
02
00
F9
FF
01
FE
FD
FC
00
00
FA
FF
FF
02
FA
FD
02
FA
02
01
03
02
03
00
FF
00
03
FF
02
FD
FE
FF
FD
FE
FE
01
02
FE
FB
FA
F9
FD
FE
FE
FD
02
FC
02
FD
01
FA
FC
01
01
00
FC
03
FA
02
FE
03
FC
00
FE
FD
FE
FD
FD
02
00
FC
03
02
02
02
FF
FF
00
00
03
01
01
02
FE
02
FA
F9
02
FC
FE
00
FE
04
03
FA
FF
05
FB
02
00
03
02
F9
F9
02
00
FB
01
FB
FF
FB
00
FE
04
FE
FB
FF
02
FD
05
FB
FC
03
03
FA
FD
02
03
FE
FB
00
FE
FC
01
00
FE
F8
FE
F9
00
04
01
01
03
04
01
03
FC
FD
04
FF
FE
00
FD
FE
FF
03
01
FD
04
04
01
FC
03
FF
FC
03
F7
FC
FC
03
01
02
FE
F8
FB
06
FE
FF
FE
01
FE
02
01
01
FC
04
F9
FF
FA
FE
00
FC
FE
00
01
00
01
F9
FB
FE
FF
03
05
F5
FA
FF
04
02
03
01
FA
FF
FC
FF
FD
01
F4
FB
FD
F8
01
03
FA
F7
F8
FE
F8
FD
FD
FF
FD
00
02
02
03
00
03
FC
00
F9
FC
FC
00
FE
03
FB
FE
00
05
00
04
FF
03
02
03
F9
F8
03
00
02
FA
FC
FF
FE
02
FB
FD
01
FE
FC
FC
04
F9
02
FC
FD
FF
04
FB
F9
FA
01
01
FB
03
00
FC
03
00
04
FE
02
FB
FD
00
FB
FD
04
FD
FA
FD
FA
04
FD
FB
00
FD
FC
FB
05
FD
FD
00
02
01
04
04
FE
FF
00
01
F9
FE
03
F8
00
FC
03
01
01
05
03
FE
FB
FD
FC
FE
FF
FD
FA
FC
FA
FC
FF
FF
01
06
04
FA
FC
FD
F7
04
04
03
0A
06
FA
FB
FE
04
04
04
FD
00
FF
03
FF
FF
02
F6
01
FB
F9
FC
FE
05
00
FD
04
01
02
FB
FC
FC
FB
FF
01
FF
04
FB
02
00
06
00
FD
FC
02
FD
FC
FC
01
FD
FA
FD
FE
FC
01
02
F9
FC
FD
00
FF
FA
00
F8
04
FB
F6
FB
FA
F7
03
FF
FF
00
FE
02
FA
06
04
FF
F9
FE
FF
FF
FE
04
00
FB
FF
FA
FE
02
05
01
FE
FB
FE
FF
02
00
02
01
03
00
FB
08
FD
FE
FD
03
F8
FF
00
F9
FE
00
F9
01
FB
FA
03
02
01
FE
00
00
FC
F9
08
FC
01
FF
FB
FD
FA
01
00
04
FE
FD
01
00
FD
FD
01
01
01
FB
02
00
FD
FE
FD
00
03
FE
00
02
FF
FF
FA
00
FD
FE
00
F9
FD
01
00
F8
03
01
F9
00
00
FE
FF
FF
FF
FE
00
FF
FE
FC
FE
00
FC
01
FF
FC
FC
F9
01
FB
03
FD
FD
FA
F7
02
FF
FF
FF
00
FD
F5
03
FA
01
FA
FB
FD
FC
FB
00
FC
FC
FD
FF
FC
06
01
FA
F8
FF
FE
F8
00
FD
FF
03
FB
FE
01
F8
F9
FF
01
04
FF
05
03
FF
01
FA
FD
00
FA
02
FE
FE
00
FA
FD
FB
FC
FB
FB
FC
FD
FF
F7
04
00
01
02
00
FF
00
F9
FB
03
00
02
04
03
FD
FC
FB
FF
03
01
04
FE
FA
01
02
FC
00
06
FA
03
FC
00
02
00
FB
FC
FF
00
FE
FE
01
02
01
FC
01
FE
FB
FE
FB
02
00
02
FA
F8
FE
00
05
FD
04
FD
00
FD
FD
00
FC
01
FC
03
03
04
03
00
02
02
FB
02
01
FF
FA
F9
02
00
02
02
FD
FD
04
00
F9
03
02
00
00
02
FB
FD
FD
00
03
01
01
01
FB
FA
FD
FC
FF
FD
FF
FC
FC
00
04
F6
07
01
02
01
03
02
00
01
FC
FC
02
FC
FD
FE
F5
04
05
FB
FE
00
02
FE
FD
FE
03
01
03
03
01
03
FF
01
02
03
FD
00
FE
04
00
FF
00
02
FD
01
04
04
00
FA
01
03
05
07
F9
FC
FD
03
FB
FB
FB
FF
FA
00
06
F7
FA
FC
FE
FA
FD
01
05
FB
FB
FE
00
FD
F8
FE
FD
00
F7
FE
FE
01
FC
03
FD
F9
00
FC
02
FB
04
F2
F9
FF
02
02
00
FB
FD
02
FD
02
00
FF
FC
F8
FD
FA
03
FC
FC
01
03
00
FB
00
02
FD
01
FD
FE
F8
FD
FC
F8
FE
04
FF
FD
F9
F8
02
F8
FF
00
FE
FE
F7
00
F9
FC
03
FB
FF
03
F5
FC
FD
FD
01
02
FB
FB
FD
F9
FA
02
F8
00
FC
FD
01
FF
FB
FF
FB
FE
FE
F9
FA
00
03
FC
FE
FD
02
F5
03
FD
FC
FB
FF
03
02
FD
02
FD
FB
03
02
FD
02
FD
01
FC
FD
FE
F9
FC
FB
01
03
00
04
FE
00
00
F8
FE
FD
03
05
00
03
FE
05
05
02
FE
00
02
FE
F8
FB
FA
FA
00
00
FA
FD
FB
F7
00
FE
01
01
FF
00
05
FD
01
FB
01
FA
FA
01
FC
FF
FD
FC
03
F9
00
FB
FB
FD
00
FA
01
F8
FB
07
FC
FF
03
F9
02
FF
FB
FB
F8
FC
00
07
01
FB
02
01
03
FB
F9
FF
03
03
02
02
FE
FC
F8
FE
01
FD
FC
FC
03
FF
01
FF
03
F6
FF
03
01
01
FD
06
FE
FC
00
F8
FB
00
F8
00
FF
FB
FE
00
FB
FF
FF
FE
FB
00
FD
00
FE
00
FF
FF
00
FC
FA
03
03
FC
FF
FD
01
FF
07
FC
FC
FB
01
03
FF
FE
FC
FD
FF
02
FA
FA
FF
FE
FE
FE
03
FC
04
FD
FA
03
02
01
FF
FF
FF
FF
FD
FF
FC
FE
FF
00
FE
03
02
01
F9
FB
FC
FD
06
FE
03
FA
02
FD
FF
F8
FE
FF
FD
FB
00
02
FC
FD
FE
01
FD
FF
F7
04
04
00
02
04
FC
04
01
FF
FD
02
FD
03
03
FF
FF
FC
00
05
FD
01
05
FC
FD
FF
FF
00
03
05
00
01
FD
01
00
F9
FE
FC
F9
FB
FA
02
FE
FD
FE
01
FE
FF
02
02
03
FC
FE
01
FD
FE
02
00
FB
03
FF
00
01
FC
00
FD
FB
00
00
FE
02
00
04
FE
04
03
00
FF
FB
FB
01
FB
01
03
FE
03
02
FD
01
FA
00
FA
FE
FE
01
02
00
FF
02
02
FD
FF
FC
01
FE
FD
FD
FF
02
FF
FC
FF
FC
01
02
FC
FF
FD
00
03
FC
FE
FC
00
FF
00
03
00
FC
FB
FE
03
FE
03
FD
FF
FE
FB
01
01
FA
FF
FE
FC
03
00
FD
01
02
FC
FD
FD
FC
FF
FD
01
FE
05
FD
03
00
FC
FC
01
FC
00
FC
FA
02
00
00
FD
FF
FB
02
FC
FF
FE
02
FD
FC
FE
FF
FA
03
FA
FC
02
FA
FE
00
00
FB
FE
FF
FB
FD
00
03
FE
02
FD
FE
03
01
01
FC
FD
FF
01
FF
01
02
00
FB
00
FF
00
FD
00
FD
00
FE
FC
00
FC
FB
FD
FB
00
FE
FE
FE
FC
01
FB
03
00
01
02
03
FB
01
FE
FF
FC
FC
00
FC
00
FE
FD
03
FB
FE
00
01
FD
00
FF
02
01
03
FB
FC
04
FF
FE
03
01
FA
FB
00
00
FD
FD
FC
FE
FD
03
00
04
FD
FB
03
FD
03
04
02
00
FF
FE
FB
FC
00
FB
FD
00
FD
FB
04
02
03
02
FA
FC
FB
FC
FB
FE
FF
FB
FF
02
03
02
01
FC
F8
01
02
FC
FD
FD
04
FF
FE
FD
FD
F9
FA
00
FF
04
03
FA
01
FB
00
FC
03
01
F9
01
FE
FB
02
06
00
02
FF
01
02
FB
FE
FD
FD
FE
FE
00
FE
01
FF
03
FE
F9
00
F8
FB
FF
FB
FD
00
03
FB
F9
FC
FF
FD
04
FC
FE
01
04
FE
01
04
FC
00
00
02
FD
F9
04
FF
01
05
FE
04
05
FD
F9
00
03
FF
FA
FF
02
FC
00
F7
FC
02
02
FE
FA
FF
03
01
FE
00
00
FF
03
00
F9
FE
00
00
01
00
03
FE
FC
02
FD
FE
01
FB
00
FA
FE
FB
FD
FD
FF
FB
FE
01
F9
02
02
03
FB
01
02
FB
FA
FA
FF
01
01
FF
FB
01
F9
FC
FE
00
FA
00
FE
FB
02
FD
F7
FB
04
FC
FD
01
04
00
F8
FD
FF
FF
00
FA
FF
00
01
FF
FD
FF
FE
F9
FA
FB
01
FB
FD
03
FC
01
03
FE
04
FF
FA
FE
FD
FD
FB
FC
FA
FD
F9
F9
FC
00
FA
FD
01
01
04
01
06
FE
FF
FA
FA
04
FB
01
FD
FC
FF
F8
FB
FD
04
01
FB
04
FC
FE
04
00
02
FE
FE
FC
03
01
02
FD
F9
FF
01
FB
01
FF
02
FD
FF
02
00
FF
FD
03
01
01
FE
FB
FD
04
FC
FC
FB
FF
00
02
00
FF
FF
FB
FF
FD
00
02
FD
FB
FB
03
00
FD
FC
00
FF
04
00
02
FC
FF
FE
FD
FD
FD
03
FB
00
FF
FE
02
FD
01
02
01
01
02
FF
03
FD
02
FA
03
FE
01
01
FD
02
FB
FF
FD
03
FA
02
FA
FC
00
01
FB
FF
02
FC
02
FE
FC
02
FF
FF
02
FA
00
02
04
03
00
04
01
FD
05
FF
FE
00
FE
02
03
FF
03
02
FC
FA
02
FF
FE
FD
FF
FC
01
04
FD
FC
FF
01
FE
FA
FB
FE
FF
FC
FF
FC
FE
FB
F5
FA
F9
06
03
12
FA
FE
FE
FC
00
FB
04
FD
00
FE
FF
F9
F9
FD
FC
FB
FE
FF
FB
FF
FF
FF
00
FC
FC
02
01
01
FD
FF
06
FB
FB
FB
FC
FB
FD
03
FF
FC
FB
0C
01
FD
00
00
05
FC
01
00
FC
01
03
FE
01
FB
FF
00
FC
FA
08
FD
00
01
00
FD
00
F9
FE
02
F7
FC
01
04
01
FE
03
03
FB
FD
02
04
FC
F9
00
01
07
05
04
01
03
F9
FF
04
F7
FE
FB
03
00
02
15
FD
FA
FC
01
FC
01
FD
FA
F9
06
00
F9
FB
FE
FE
FB
FD
03
FC
FC
FA
08
FF
01
FA
FC
06
01
08
02
05
F7
FB
FD
FB
FF
01
00
00
FB
FC
FF
FA
01
FF
FF
00
F6
FD
04
02
0F
FF
FF
07
FF
F4
07
FF
F9
FD
F6
01
00
F3
04
FD
FF
FA
FA
FF
FA
FA
04
05
02
09
FB
05
0E
FF
F7
01
FB
FF
F8
F8
F7
02
FC
FF
F9
F5
08
06
F9
F9
03
F5
F8
06
FA
F9
FA
F7
FA
F8
02
FF
FC
0D
FE
F8
FD
FE
FA
00
02
06
05
FD
FF
01
FF
05
FA
F3
02
FD
FE
FD
01
00
F9
02
04
FE
01
01
FF
03
FC
06
02
FD
04
03
02
FB
03
F8
FE
FD
F7
03
00
03
03
F9
FA
00
01
FA
FC
01
01
00
FC
01
FA
F8
00
FC
FA
FF
FC
FE
FC
FF
04
FF
01
FC
04
F7
06
01
01
FB
FF
01
FB
01
FF
00
01
02
FD
01
07
FB
07
00
00
FF
FC
FE
04
FF
FB
FA
02
02
03
FD
02
FA
04
04
00
FF
00
FC
F9
00
FF
02
FB
06
FB
FD
02
03
FD
FC
FE
FE
00
FF
FC
01
01
01
05
00
02
FA
02
07
F8
02
FC
03
FF
00
01
01
FD
01
03
00
03
01
FE
F8
06
FE
FD
FD
FF
03
FA
FE
FC
FD
F9
01
FB
FD
FE
02
00
FF
FB
FE
FD
FE
00
01
02
FA
00
F9
02
FC
FE
03
F7
FE
03
FC
03
02
02
FD
FB
FE
F9
FB
FC
00
01
F6
FC
FD
02
FF
03
FF
03
FE
FB
03
00
03
FE
FF
FF
FC
FD
FD
FD
00
FF
FD
FB
02
FC
FD
FD
FB
FC
FD
FC
04
00
01
02
FA
FF
FC
04
FC
FB
FB
00
FE
01
FD
FC
FA
00
01
FF
FE
FF
02
FA
FD
FD
FA
00
01
FE
FC
FA
03
FE
03
00
03
FC
FB
FD
FB
01
FB
FD
FF
FD
03
01
FE
F9
04
01
02
FA
FF
FC
FF
FB
FE
FE
FC
03
01
FD
FD
F9
03
FE
FC
03
00
03
FC
FD
FE
FA
FE
FD
FD
FA
01
00
03
FD
FB
00
00
FB
FB
FF
FC
FC
02
01
02
FD
02
FC
01
FF
01
FC
FE
FF
FD
FB
FF
FC
FE
FE
01
FB
03
FF
FB
FC
FC
01
FB
FB
01
00
01
FF
FC
FB
FF
FE
00
01
FE
02
01
FD
FD
FC
FD
FD
01
F9
00
FE
00
FB
FD
FA
00
01
FC
01
FD
FB
FD
01
00
01
FC
03
FC
00
00
00
FD
FD
00
FD
FB
FF
FB
03
FF
04
00
02
FF
FC
FF
FF
03
01
01
FE
FC
FD
FE
00
FE
01
00
02
02
FB
FF
03
FF
03
FB
00
FC
FA
FD
00
01
FC
FC
FF
FD
FF
FF
FE
FD
FF
03
FD
FC
02
04
00
FF
00
00
03
FE
01
00
06
FD
FE
01
FE
FB
00
02
FB
FC
FB
FC
FD
FC
FB
F8
FF
FA
FC
04
FF
03
FE
FD
FB
F9
FE
00
FD
F8
FA
01
03
00
F9
FC
FA
05
FF
FC
FE
FD
00
FF
FC
F9
02
FB
01
FB
00
FD
01
FE
03
FD
FC
FC
FD
FC
03
FC
FE
01
FD
01
F9
FE
FC
02
03
FB
01
01
FE
01
FA
F9
FC
02
02
00
FD
FE
03
00
FE
00
02
FB
FB
03
F9
01
FB
FD
FC
FF
FD
02
01
00
FD
00
FD
FD
FD
FB
03
FF
FD
FF
03
FD
FB
FE
FC
FE
FC
FE
FF
FA
03
FE
FE
01
00
FF
FE
FA
04
02
FF
F9
FB
FB
00
03
03
FD
02
FF
02
FA
FB
FA
03
FE
FE
01
FD
02
FF
FE
FB
FE
FA
FF
FE
01
FC
00
01
FC
FC
FD
FB
00
01
05
01
03
F9
FE
FE
F8
FF
FF
00
FF
FD
01
00
00
01
FF
FC
FF
FB
FB
FE
00
FC
FC
FB
00
01
FF
05
03
FA
02
01
02
FA
03
03
FD
FF
00
FF
02
FC
FB
02
03
05
00
03
FD
FC
FF
FA
07
05
06
02
01
FD
FE
FF
FC
FA
FC
FA
00
FE
FD
01
FD
FC
FE
00
00
FA
04
FA
00
FE
03
02
00
FF
FC
FB
01
00
FF
FC
FC
FD
FF
FE
00
FC
04
FF
FD
02
F6
03
FA
FB
FC
FF
01
01
FC
00
02
F7
FB
03
02
F7
FC
FD
F7
02
FF
FF
FE
FF
FC
01
FD
FF
01
02
FE
00
F9
01
FB
FC
FF
FD
02
FA
00
04
03
01
04
FC
FF
02
FF
FE
07
02
02
00
06
FC
00
04
FC
FA
FF
FB
02
05
F9
03
FA
06
FD
FA
FF
FF
05
FE
FD
FC
00
FB
FF
FC
FC
FB
FE
FC
02
FE
06
04
01
FE
01
FF
02
FC
00
FD
FA
FF
FE
F9
FF
FF
FF
FA
FC
FE
FB
03
FD
05
FD
02
01
01
FF
00
00
01
01
FB
01
FA
03
FB
FB
FA
02
FF
FB
FE
F8
02
FD
FF
03
FF
FF
03
02
02
FE
FF
FD
FE
FB
00
FA
01
01
FA
01
FE
FF
05
03
00
FD
00
00
04
FF
01
FD
FC
FD
03
FE
01
02
02
01
FF
FB
FF
FA
FC
03
06
FC
FB
02
FB
00
F9
FC
00
00
FF
FB
FF
FF
FE
FB
01
FB
01
02
FD
01
01
FD
AA
2E
B7
32
41
28
2A
20
21
D0
2C
69
1B
17
F5
28
31
21
FE
44
2F
45
AB
33
3A
22
62
2C
D9
9C
29
37
92
22
40
2D
40
A1
81
51
D2
32
4A
1E
A9
9F
27
47
29
25
33
A9
61
61
2C
2D
F6
BA
54
20
5E
26
34
D1
06
2A
22
C6
96
2F
2D
9C
60
A8
9E
29
29
36
2B
49
A5
45
19
AD
25
1F
2B
36
53
B1
2C
20
06
B0
94
34
BF
01
6C
4D
03
2E
6A
C4
52
68
23
FF
2F
6B
90
2A
48
2A
9F
30
3F
AD
35
29
CD
99
58
24
A1
9B
1F
4C
01
02
F9
FC
FD
FD
FD
FB
FA
FB
FD
04
FA
FF
01
FD
FD
FA
00
01
00
FD
FE
FB
FD
03
FF
03
FD
02
FA
02
02
FB
FD
FF
00
FB
00
FB
FE
02
02
FD
F8
01
05
FC
01
FB
00
FF
00
03
05
FA
03
FA
FA
FF
01
01
FF
01
FD
02
01
03
03
03
02
FB
FA
01
FB
FF
FE
FD
FA
FB
FA
00
00
03
FF
FE
01
FC
FE
FB
FC
FD
03
FE
03
FE
FF
03
01
02
FE
FA
FF
FE
FC
02
FA
FE
03
FF
02
FE
FD
FF
FB
FB
02
02
FC
03
FD
FB
FF
FB
02
01
FF
01
FF
FA
00
00
00
02
F8
FB
FC
07
F8
04
F9
00
FB
FF
FB
03
00
FC
F9
FF
FE
F9
FD
F9
04
02
F9
FB
04
04
FA
01
04
00
FF
FC
F6
F8
FF
04
06
FB
FE
F8
FA
02
FE
02
03
02
02
06
F9
01
FF
00
FE
F8
FE
FD
FB
01
02
FD
04
FE
FC
FB
FE
FD
06
FF
FF
02
00
07
FB
FC
01
03
03
FB
FA
03
FA
00
02
05
05
FD
FE
03
02
01
FF
FE
07
FB
01
FC
FC
FC
FE
FE
FE
FA
06
03
FD
FE
05
F9
F8
02
FB
FC
FC
FF
F7
FF
01
FB
FB
FE
00
04
FE
FE
FB
FC
FE
FA
02
F8
00
03
FD
00
FE
FE
FB
FE
FE
01
03
FD
01
FF
00
FD
FC
FB
FC
01
03
FE
FD
00
02
01
FA
04
02
FC
04
FD
FC
FB
01
FD
FB
FF
FE
FE
FC
FC
FF
FB
03
00
FA
00
00
FE
FB
FB
03
FE
01
04
FC
FC
FD
FF
01
02
FC
FE
04
03
FE
FC
FB
00
FD
FF
FD
01
FC
FD
FB
FE
FD
FB
00
FE
FC
F8
00
03
FB
FC
00
FA
FD
FD
FD
F9
FC
00
01
FC
FA
FD
FE
FD
02
02
FE
FD
FD
02
02
FE
02
FB
00
FB
FD
FA
02
FB
FB
03
00
FC
01
02
01
FC
FD
01
00
02
FE
FE
FD
FC
02
FA
FC
FA
FE
00
01
00
00
FE
01
03
00
FF
00
FE
FD
04
FB
FC
02
FF
03
00
00
00
FB
FE
02
FE
FD
03
FB
FE
00
01
00
02
FE
FC
FE
FC
FE
FF
FA
FD
FD
03
FF
04
00
01
FC
00
00
01
FD
FD
02
FC
FA
03
FF
00
FB
03
02
00
FB
FE
02
FC
01
FD
FC
00
01
01
02
FC
03
00
FD
FD
FD
FF
04
FD
FB
FD
FB
FF
FF
FD
FC
03
01
FD
03
FA
04
01
FF
FD
03
FB
FC
00
FE
02
00
FD
FB
FB
F7
F9
FD
FD
FA
FE
FB
02
00
01
04
00
FB
F2
F7
FD
01
F9
FD
04
F5
FE
FF
FB
01
01
FF
F7
FA
01
00
00
00
FE
F7
FA
00
03
03
FD
01
F3
FC
F3
FE
02
01
FA
02
FE
FE
FF
FF
05
06
F2
FE
04
FE
FD
02
FF
05
FE
FA
FA
FF
04
02
FC
F7
FF
FF
03
FF
FF
F9
FC
F9
00
03
FD
02
FC
02
FF
01
FE
FE
01
F7
F7
FC
03
FF
FD
02
03
02
02
00
01
FB
FD
FB
FE
04
FB
F8
01
FC
00
04
F9
02
F8
00
00
04
F5
FF
FE
FD
FB
FF
00
04
01
FC
F8
06
01
FC
03
FC
FB
F8
FC
FC
01
FF
FE
04
FA
FE
02
FD
FE
F8
F9
02
00
F9
02
FE
01
01
FD
FB
00
01
02
FD
F8
03
02
FD
FC
03
06
FB
00
FF
FB
02
FE
00
FE
FD
FA
01
FC
FE
01
FD
01
FB
F9
FE
01
01
04
FE
FE
07
04
FD
F6
FE
FE
01
F9
04
FD
02
03
FD
FD
FD
00
03
04
F9
FB
FD
05
FC
03
02
03
FC
01
00
FF
01
03
03
02
01
FF
FF
FB
00
FD
02
FD
FA
FE
FC
00
09
FA
FC
00
00
00
FF
FE
FB
FE
F9
01
FE
FC
F9
FF
FD
FC
F9
FB
FD
FF
02
F9
FF
03
00
FA
FC
00
01
01
00
03
05
FF
FA
FE
FE
FD
00
01
FF
01
FC
02
00
FF
FA
04
00
FA
00
01
FD
FA
FB
00
FE
FC
FC
FE
03
FA
02
FC
FE
FC
F9
FA
FD
FC
03
02
FC
FB
FE
01
04
01
FB
FF
F8
FF
FE
FA
FF
01
FD
02
F9
02
02
01
02
00
02
FC
FC
FC
FF
FF
FA
FD
FC
FF
00
03
05
02
04
02
FB
03
FB
00
00
FD
FD
FC
FC
FE
00
04
FF
FB
F9
00
FD
01
FE
01
00
05
FC
FF
FF
FD
FC
FD
FC
FD
02
FB
04
FF
01
FD
01
04
F5
FD
F6
06
FF
08
FD
FD
00
FC
FA
01
FE
FC
F8
FF
00
F9
FA
FE
03
F7
05
FE
F9
03
02
FB
FD
FE
F8
00
FB
FF
00
FD
04
02
FA
FB
00
01
FE
FF
FB
00
02
0C
FF
F5
01
00
04
FC
FD
F8
00
00
06
FA
FF
FA
FE
FD
F7
FF
0B
FC
FD
05
FF
FF
FF
F3
FE
02
FD
FD
00
FC
00
03
00
FE
FE
01
02
FB
02
F3
FC
06
05
FF
FC
FC
01
FA
01
FF
FF
05
FA
FD
FA
04
08
FD
FA
FA
02
FC
05
FC
FA
01
04
FC
FA
FA
FD
01
FC
01
FC
FF
02
FB
FE
FD
00
02
FB
FC
FB
02
FE
02
FF
FE
01
FB
03
01
FA
00
FA
FF
FE
FE
04
00
FA
FD
00
FF
FE
01
FF
02
FF
01
FC
01
02
00
F8
03
FE
00
00
00
FD
FA
FA
01
04
FA
02
FC
02
FD
00
FD
FD
01
FC
03
FF
FF
02
01
01
FD
01
FA
F9
FF
FD
00
02
FB
FC
01
FF
FD
FF
FE
00
FE
FC
FA
FF
FE
FB
FD
01
02
03
FD
01
FB
03
02
FC
FB
01
02
FC
FE
FD
FB
03
FA
00
00
FB
FF
FB
02
01
FF
FE
FE
01
FB
FD
FE
03
03
01
00
FC
FA
FC
FF
FF
01
F9
FD
00
FA
FD
02
05
FE
F9
FC
FF
FA
02
00
01
FF
02
FD
03
FF
03
FD
FD
FF
01
FD
04
FA
FB
FD
FB
FF
F8
03
FC
03
FC
FC
FC
FD
FE
FF
FF
FA
FC
00
FC
03
06
00
05
FC
03
FE
FD
FB
FD
00
01
01
FC
FB
01
FD
FB
FC
02
00
FC
FB
FF
FB
F9
FC
FE
FE
FA
05
FF
FF
00
FF
FE
01
03
01
FA
FC
FF
FD
FF
03
01
02
01
03
FD
03
FE
FF
FA
FA
02
01
02
01
FA
02
03
FB
FD
FC
FD
00
04
F9
00
FB
FD
02
FF
01
FF
FD
FF
FE
F9
FB
FF
F9
FA
FF
FA
FE
FE
FB
FE
FF
01
FE
FF
02
02
00
FD
F9
FD
FC
01
FF
02
FB
FD
05
FF
03
FD
FC
FB
FA
FC
04
F7
FB
F8
00
FD
FD
FE
F7
FE
FB
F9
00
FF
03
05
FF
FD
03
FE
FB
FB
FD
00
00
F8
06
FA
FB
FF
FB
FF
02
FA
02
01
F9
FC
FF
FA
FD
FC
00
F9
FB
FA
02
03
F7
00
FD
03
04
FE
02
FB
01
F7
FE
F9
01
FE
FD
01
02
FA
05
03
FE
02
FB
FF
FD
FE
02
02
01
FB
03
FE
FF
FA
FC
04
FA
FA
01
FB
01
FD
FE
FA
FC
FB
01
FB
FB
F7
04
02
03
05
FD
FE
00
01
FB
05
01
02
00
03
FE
00
02
FD
FD
01
00
FE
FA
01
FC
FA
03
01
01
FE
FE
FE
03
F9
F9
00
05
02
FF
02
02
FC
FF
00
01
03
FA
FC
FD
01
FE
FF
FB
FE
FE
FF
FA
FC
FB
01
02
FF
04
02
01
FE
FC
FD
FC
FE
00
FF
02
FE
01
FE
FE
FE
01
03
02
00
FF
05
00
02
FC
FF
FA
00
FE
FA
01
FE
02
03
03
FC
00
FC
FD
FF
03
00
01
FD
F9
FF
FD
FC
FE
FE
00
FE
00
FD
FA
FB
02
F9
FF
00
FC
02
00
FE
02
FA
F9
FD
FD
FF
FA
F8
02
FA
05
FB
01
FC
00
FB
FF
01
FE
00
FE
FF
03
FC
F8
FE
FE
FB
FC
FF
FC
FE
FC
FC
00
FE
F9
00
02
FF
00
00
FB
FA
FC
01
FA
02
FC
FF
00
02
02
03
00
FD
01
FA
FE
FD
FE
00
FE
FE
03
FB
02
FA
00
01
FD
01
01
FF
FE
01
FC
FC
FA
00
FA
FB
FD
FE
FD
FC
FF
FD
FD
FB
02
03
FD
FD
FE
FE
FF
00
FF
FE
FF
01
FD
02
02
FD
FB
04
FC
FD
FC
FB
FA
FF
00
FC
01
03
03
01
FF
FD
04
04
FD
03
01
FD
FB
FE
FF
03
00
FA
FA
F9
F7
03
FA
FF
FF
05
00
04
FF
01
04
05
FE
00
00
01
04
03
00
FF
FD
F8
FD
FB
04
FA
08
FF
FD
FC
FB
02
FE
02
00
FE
01
04
FB
06
FD
03
FB
FE
00
F9
02
01
FE
FA
FC
01
FA
00
FC
04
FD
FE
FB
00
03
FC
FD
FA
FA
FE
03
04
02
F9
F9
00
FF
FC
01
FA
03
FC
FA
FB
04
FE
03
00
FA
FE
FE
FB
FF
02
00
FC
FE
FE
FD
FC
FE
FD
FA
02
00
05
FE
00
FB
02
03
FE
F9
FF
FE
01
02
02
FF
FD
FC
FC
FF
FD
FB
00
01
F8
00
00
F9
FE
FC
FD
F3
04
F4
FF
00
05
03
FD
FF
FE
FD
FA
FC
03
02
FE
FC
FB
FE
03
FB
FC
F9
04
06
F8
FB
02
F6
03
FD
FA
01
F4
00
F6
01
FE
01
FA
FF
FA
01
F5
00
03
FB
FC
FD
FC
F7
02
05
FA
01
FE
F8
00
FA
01
FD
03
FA
01
FC
FC
FB
FB
F8
02
FB
02
FF
04
00
FB
FF
FB
FD
F6
F7
FD
FC
00
FF
FA
02
FB
F9
03
FD
02
FB
02
02
FE
03
F9
FB
F9
04
F6
03
F8
FF
FB
FD
FB
FA
FE
FD
00
00
FA
01
FC
F7
01
04
FC
FD
FE
03
FF
FC
03
F9
FD
FE
03
FF
FC
01
FE
01
FA
03
FB
FB
00
FC
02
05
FC
03
00
04
02
FE
FB
FE
03
00
FE
04
FC
FC
FE
FE
FC
FF
FD
FC
FA
02
01
FD
FD
FB
FA
03
FE
FD
FB
FF
F8
02
FB
FE
FC
FD
F8
02
F9
F9
FC
FB
01
FF
FC
FA
FE
FE
FA
FC
FA
FA
01
F9
06
FC
06
FF
01
00
FA
FE
FB
FB
01
01
04
FE
F9
FF
FA
FB
05
05
00
FA
FD
FE
FB
02
FE
FC
00
04
FE
FC
00
FB
FA
FF
FC
01
FF
02
05
F8
03
03
01
FC
F6
03
04
06
FA
F8
FE
FA
FE
FD
FE
FC
00
F6
F9
00
01
FC
04
F9
01
FB
F6
FC
FF
FA
FB
FF
FB
05
FE
FC
FA
FB
FE
FE
03
01
02
01
FA
03
05
02
FE
08
00
FB
FE
FA
FF
00
F8
FE
05
00
F8
00
FD
FE
FF
06
FC
05
07
F9
01
FC
00
FD
FF
FD
02
04
F6
05
03
FF
FE
06
05
04
FA
01
01
01
FF
FC
FE
FC
00
FF
FE
FE
01
F8
F9
07
FD
01
FE
01
FD
03
05
FB
FA
F9
FF
FD
06
FC
FA
04
02
01
01
FD
01
FF
FC
FD
FF
FC
FF
FC
00
02
03
02
FF
04
FF
00
03
FC
00
FB
FB
03
01
FE
FE
FE
01
03
02
02
00
03
02
FD
01
01
00
FC
02
03
FE
FB
00
03
FE
FD
FD
FD
FE
00
01
01
FE
F9
FC
FC
FF
FB
FA
FC
02
FF
FF
01
FE
03
02
FB
FB
FB
03
FB
00
01
05
00
00
FD
03
03
FD
02
FD
FC
FC
FC
00
FF
FB
FB
04
FF
FA
FD
FF
02
01
04
FC
FC
FD
04
02
02
02
FA
FD
03
FF
FF
04
FC
02
01
03
01
FC
FE
00
FC
FE
03
FC
04
FB
FD
FE
FE
FC
00
F9
01
FA
03
FC
00
FE
FD
F5
F8
01
FA
FA
00
04
FD
02
FD
01
F8
02
FA
04
00
03
00
04
FC
FB
02
F8
FB
01
FD
00
FE
FA
01
02
FD
00
F9
01
00
02
03
FF
F8
04
FD
03
00
FC
FC
FA
FB
FD
F9
FF
FC
FB
01
00
FF
FA
04
FF
01
FD
FE
01
01
FC
FC
FB
FD
FF
FC
FE
FF
FF
00
FE
01
FA
03
05
FA
FD
FB
00
FA
FE
FF
FA
00
01
FE
FD
FE
00
FD
FD
01
03
FC
FC
FF
F9
00
01
FC
02
FD
01
FB
FC
FA
01
04
F7
FC
FE
FD
FC
FF
FB
00
FD
FF
00
FF
01
02
01
FF
FB
FA
FB
FE
FA
00
FC
FF
00
02
FF
FC
FD
F6
FD
F7
01
FA
01
FC
FE
FF
F8
FD
FB
FA
03
FF
FE
FB
00
FB
01
F2
FC
FD
06
F9
01
FA
F9
00
FA
03
03
06
FE
FB
03
F7
04
03
FD
FD
FD
FD
FC
FC
00
FC
FA
00
00
FD
06
FE
FD
02
FD
FF
00
FD
FB
00
FB
FD
FF
F6
FA
02
FD
03
FC
FF
02
01
04
FB
04
FC
FD
00
FB
FA
FF
FA
01
00
FE
01
00
04
FC
02
00
FE
03
01
02
FA
00
04
F8
04
01
FD
FE
FE
03
F8
03
FF
02
02
02
01
01
FF
FE
FB
00
FE
FE
FD
04
FF
01
FF
00
FC
FD
FB
00
FE
FF
FF
FE
FB
00
FF
00
FE
01
00
02
F7
FD
04
FD
FC
02
FA
00
01
07
00
00
FD
05
FD
02
FB
FF
FE
FE
FD
FF
FE
02
FC
01
04
FE
01
FD
FD
06
FB
01
FD
04
FF
03
FB
FE
01
FE
F9
FE
05
F9
FC
03
FF
FF
01
FF
01
FF
FF
02
FC
FC
03
FC
04
03
03
00
FE
04
00
02
02
FB
FD
04
FE
FA
03
FD
FB
FD
FC
00
FB
03
FC
00
03
FE
00
03
02
FC
FF
FC
FD
FC
FD
FA
01
FD
00
03
01
01
FE
FE
FC
FB
02
00
FC
FC
FC
03
FE
02
FB
FE
FC
00
00
03
FC
FC
01
FA
FC
00
02
FD
FC
F9
FC
FE
04
00
01
00
FD
01
FF
FD
00
FB
FE
00
FE
FC
FD
FD
FB
FE
FB
03
FC
FD
FD
FD
FF
FA
01
FF
02
02
FF
FE
01
FB
FF
FA
FD
00
FA
03
FA
FB
04
FF
FF
04
03
FE
00
FB
01
FB
05
01
FF
FC
03
02
01
FA
00
FD
01
01
01
01
01
05
02
FE
03
01
00
FE
FD
FA
01
FF
00
03
01
05
FC
FC
FC
FC
FD
FD
FC
00
FE
01
01
FD
FD
01
FC
FF
03
FF
FE
FF
F9
FE
01
FC
F9
03
FD
FA
03
01
FC
00
FC
FD
01
FB
04
FD
00
FC
FC
F8
02
01
FD
01
02
FD
04
01
00
FF
FF
FF
01
FB
00
FF
FF
01
01
00
FB
FA
FB
FD
FB
FC
FB
FA
02
00
FB
FF
FD
FE
FE
FC
FA
FD
FD
FC
00
FA
FC
FE
FC
01
FD
01
00
FD
03
FA
00
02
FD
03
01
03
03
FB
FF
FD
FE
FB
02
FE
FC
00
00
FF
FB
00
FB
FD
FC
FD
FD
FE
FB
01
FD
FE
03
FC
02
03
FD
FA
FB
FE
FB
02
03
FD
01
02
FC
02
FC
FE
03
FC
FF
FF
03
01
FE
FC
02
FD
FB
00
00
01
00
00
FF
FE
03
FC
FB
04
00
FB
FF
01
00
FD
FE
03
FE
03
03
FE
FE
01
FB
FD
FE
04
FF
01
FE
FB
FD
FF
01
FE
F7
FD
FF
FD
FA
01
FD
07
FE
FC
F7
FD
01
03
02
FC
F9
FC
FF
FE
04
F9
FE
FF
02
00
FF
00
00
03
FE
FA
FF
FC
01
F9
01
02
01
01
00
02
01
FF
00
FA
F9
01
01
FE
01
05
06
FA
03
FD
FD
04
F9
FD
FF
FE
FD
01
FD
FE
FD
03
00
02
FF
00
FE
03
FC
FE
01
00
01
02
00
FE
FD
F7
08
FF
FB
FF
FF
01
01
00
F8
F7
FF
FB
FE
FA
F9
02
F8
02
FF
F9
01
00
03
02
05
00
FA
F9
FB
00
F9
03
FD
FF
FC
FC
00
FB
00
05
FC
03
01
F7
FE
FC
F7
04
04
03
FF
02
FB
02
FD
FA
FE
FF
FD
FC
FF
06
FF
FC
02
F7
FE
05
03
03
05
04
02
F9
FE
FD
FE
03
FC
FC
FF
FD
F9
03
03
FD
F8
03
FE
FE
F9
F9
FF
01
04
FA
FB
01
00
FE
FC
00
01
FD
FE
F8
FE
F9
FB
FB
FC
FA
04
FD
F9
FE
03
15
D1
31
D2
12
E7
F3
CC
14
24
D7
20
0C
DC
F9
06
D4
07
FE
1A
D4
1B
20
CD
E0
C4
1E
C2
0A
1A
15
1D
24
04
E6
11
11
25
2C
20
28
00
FB
D4
25
22
C9
23
CE
D1
10
27
27
2C
E0
D4
FE
23
0D
FF
18
0A
E4
30
EB
EC
F6
22
24
14
C6
16
22
1A
26
F0
E9
F0
E9
0E
16
0D
0A
1C
D5
C9
C7
2D
10
1F
C2
B8
FB
0C
27
13
1E
00
2A
13
FA
D2
1D
1B
17
29
CB
FC
E4
2A
1F
E3
23
D9
20
D5
01
17
F4
CE
2D
25
0C
C4
19
1F
C1
21
F9
FE
F7
FF
F8
FB
00
FF
FC
03
FF
FE
FF
01
05
FE
FF
FA
04
FE
05
00
FA
00
00
05
F5
01
02
FD
FC
FD
FF
FB
FC
F8
03
FB
FF
FB
00
00
00
02
FF
FE
01
01
01
FE
FC
00
F6
F7
FD
FF
06
FB
FD
FD
FD
01
FF
01
03
FD
FE
F9
FD
FB
FF
00
F9
FE
FA
03
01
FB
FB
03
01
FD
F8
FB
FD
00
FE
F8
00
FA
FC
FE
00
FD
00
03
01
03
00
FF
05
03
FC
FE
FF
F2
FC
04
F6
02
03
FD
03
03
FF
FC
00
FF
FA
00
04
03
FE
FF
FD
02
FF
F9